{
  "version": "1.0",
  "truncation": null,
  "padding": null,
  "added_tokens": [
    {
      "id": 0,
      "content": "[PAD]",
      "single_word": false,
      "lstrip": false,
      "rstrip": false,
      "normalized": false,
      "special": true
    },
    {
      "id": 1,
      "content": "[UNK]",
      "single_word": false,
      "lstrip": false,
      "rstrip": false,
      "normalized": false,
      "special": true
    },
    {
      "id": 2,
      "content": "[CLS]",
      "single_word": false,
      "lstrip": false,
      "rstrip": false,
      "normalized": false,
      "special": true
    },
    {
      "id": 3,
      "content": "[SEP]",
      "single_word": false,
      "lstrip": false,
      "rstrip": false,
      "normalized": false,
      "special": true
    },
    {
      "id": 4,
      "content": "[MASK]",
      "single_word": false,
      "lstrip": false,
      "rstrip": false,
      "normalized": false,
      "special": true
    }
  ],
  "normalizer": {
    "type": "Lowercase"
  },
  "pre_tokenizer": {
    "type": "Whitespace"
  },
  "post_processor": null,
  "decoder": null,
  "model": {
    "type": "BPE",
    "dropout": null,
    "unk_token": null,
    "continuing_subword_prefix": null,
    "end_of_word_suffix": null,
    "fuse_unk": false,
    "byte_fallback": false,
    "ignore_merges": false,
    "vocab": {
      "[PAD]": 0,
      "[UNK]": 1,
      "[CLS]": 2,
      "[SEP]": 3,
      "[MASK]": 4,
      "!": 5,
      "\"": 6,
      "'": 7,
      "(": 8,
      ")": 9,
      ",": 10,
      ".": 11,
      "0": 12,
      "1": 13,
      "2": 14,
      "3": 15,
      "4": 16,
      "5": 17,
      "6": 18,
      "7": 19,
      "8": 20,
      "9": 21,
      ":": 22,
      ";": 23,
      "?": 24,
      "a": 25,
      "b": 26,
      "c": 27,
      "d": 28,
      "e": 29,
      "f": 30,
      "g": 31,
      "h": 32,
      "i": 33,
      "j": 34,
      "k": 35,
      "l": 36,
      "m": 37,
      "n": 38,
      "o": 39,
      "p": 40,
      "q": 41,
      "r": 42,
      "s": 43,
      "t": 44,
      "u": 45,
      "v": 46,
      "w": 47,
      "x": 48,
      "y": 49,
      "z": 50,
      "in": 51,
      "th": 52,
      "an": 53,
      "to": 54,
      "er": 55,
      "ou": 56,
      "ing": 57,
      "on": 58,
      "re": 59,
      "at": 60,
      "the": 61,
      "or": 62,
      "it": 63,
      "st": 64,
      "ll": 65,
      "me": 66,
      "is": 67,
      "ha": 68,
      "ay": 69,
      "ee": 70,
      "oo": 71,
      "ve": 72,
      "no": 73,
      "you": 74,
      "and": 75,
      "my": 76,
      "le": 77,
      "ed": 78,
      "ar": 79,
      "en": 80,
      "so": 81,
      "ch": 82,
      "as": 83,
      "be": 84,
      "ho": 85,
      "es": 86,
      "go": 87,
      "ad": 88,
      "day": 89,
      "lo": 90,
      "gh": 91,
      "for": 92,
      "of": 93,
      "ck": 94,
      "all": 95,
      "li": 96,
      "am": 97,
      "ro": 98,
      "ut": 99,
      "wi": 100,
      "he": 101,
      "et": 102,
      "al": 103,
      "un": 104,
      "ti": 105,
      "wh": 106,
      "ke": 107,
      "that": 108,
      "we": 109,
      "ri": 110,
      "ght": 111,
      "do": 112,
      "ver": 113,
      "out": 114,
      "se": 115,
      "ly": 116,
      "one": 117,
      "have": 118,
      "id": 119,
      "now": 120,
      "up": 121,
      "co": 122,
      "ust": 123,
      "ce": 124,
      "ld": 125,
      "mo": 126,
      "but": 127,
      "wor": 128,
      "ter": 129,
      "just": 130,
      "ni": 131,
      "ere": 132,
      "ood": 133,
      "can": 134,
      "with": 135,
      "ne": 136,
      "get": 137,
      "not": 138,
      "was": 139,
      "ra": 140,
      "la": 141,
      "are": 142,
      "ir": 143,
      "ma": 144,
      "qu": 145,
      "ur": 146,
      "ab": 147,
      "some": 148,
      "good": 149,
      "pe": 150,
      "work": 151,
      "tw": 152,
      "ally": 153,
      "ry": 154,
      "im": 155,
      "this": 156,
      "us": 157,
      "pp": 158,
      "ot": 159,
      "ic": 160,
      "ould": 161,
      "ill": 162,
      "ba": 163,
      "night": 164,
      "end": 165,
      "sh": 166,
      "de": 167,
      "mor": 168,
      "love": 169,
      "su": 170,
      "like": 171,
      "got": 172,
      "ant": 173,
      "nt": 174,
      "than": 175,
      "time": 176,
      "don": 177,
      "na": 178,
      "too": 179,
      "ate": 180,
      "ther": 181,
      "ks": 182,
      "how": 183,
      "ye": 184,
      "quot": 185,
      "thing": 186,
      "ag": 187,
      "your": 188,
      "today": 189,
      "iss": 190,
      "see": 191,
      "ss": 192,
      "ink": 193,
      "ow": 194,
      "very": 195,
      "fee": 196,
      "if": 197,
      "going": 198,
      "te": 199,
      "ish": 200,
      "what": 201,
      "ta": 202,
      "haha": 203,
      "way": 204,
      "wee": 205,
      "back": 206,
      "bo": 207,
      "eep": 208,
      "rom": 209,
      "any": 210,
      "lol": 211,
      "fin": 212,
      "po": 213,
      "miss": 214,
      "fo": 215,
      "ting": 216,
      "ion": 217,
      "wa": 218,
      "want": 219,
      "amp": 220,
      "know": 221,
      "fa": 222,
      "fe": 223,
      "from": 224,
      "ning": 225,
      "ong": 226,
      "mm": 227,
      "atch": 228,
      "our": 229,
      "ca": 230,
      "ex": 231,
      "will": 232,
      "ple": 233,
      "new": 234,
      "did": 235,
      "ook": 236,
      "feel": 237,
      "art": 238,
      "ers": 239,
      "about": 240,
      "ah": 241,
      "si": 242,
      "really": 243,
      "off": 244,
      "its": 245,
      "had": 246,
      "think": 247,
      "sa": 248,
      "nd": 249,
      "oh": 250,
      "eed": 251,
      "pl": 252,
      "gu": 253,
      "mu": 254,
      "fri": 255,
      "row": 256,
      "ain": 257,
      "read": 258,
      "ie": 259,
      "home": 260,
      "watch": 261,
      "gre": 262,
      "more": 263,
      "com": 264,
      "there": 265,
      "well": 266,
      "ts": 267,
      "il": 268,
      "twit": 269,
      "red": 270,
      "need": 271,
      "they": 272,
      "ough": 273,
      "still": 274,
      "ool": 275,
      "sp": 276,
      "ent": 277,
      "con": 278,
      "fu": 279,
      "week": 280,
      "ge": 281,
      "ite": 282,
      "sl": 283,
      "thanks": 284,
      "fun": 285,
      "twitter": 286,
      "when": 287,
      "happ": 288,
      "ct": 289,
      "hope": 290,
      "ving": 291,
      "um": 292,
      "ound": 293,
      "come": 294,
      "jo": 295,
      "een": 296,
      "last": 297,
      "mi": 298,
      "here": 299,
      "much": 300,
      "every": 301,
      "king": 302,
      "ine": 303,
      "ph": 304,
      "ard": 305,
      "sleep": 306,
      "morning": 307,
      "has": 308,
      "ess": 309,
      "morrow": 310,
      "oooo": 311,
      "pre": 312,
      "eve": 313,
      "then": 314,
      "her": 315,
      "che": 316,
      "wn": 317,
      "hh": 318,
      "ide": 319,
      "wish": 320,
      "lu": 321,
      "llow": 322,
      "tomorrow": 323,
      "pro": 324,
      "sad": 325,
      "great": 326,
      "wait": 327,
      "ous": 328,
      "aa": 329,
      "been": 330,
      "by": 331,
      "right": 332,
      "ind": 333,
      "again": 334,
      "follow": 335,
      "sun": 336,
      "friend": 337,
      "use": 338,
      "sto": 339,
      "she": 340,
      "would": 341,
      "look": 342,
      "sor": 343,
      "af": 344,
      "rain": 345,
      "bad": 346,
      "ty": 347,
      "gr": 348,
      "won": 349,
      "bu": 350,
      "why": 351,
      "twee": 352,
      "ready": 353,
      "could": 354,
      "ig": 355,
      "ble": 356,
      "man": 357,
      "ff": 358,
      "ation": 359,
      "ass": 360,
      "over": 361,
      "dy": 362,
      "stu": 363,
      "only": 364,
      "other": 365,
      "mon": 366,
      "happy": 367,
      "who": 368,
      "pa": 369,
      "bet": 370,
      "lt": 371,
      "ok": 372,
      "der": 373,
      "say": 374,
      "show": 375,
      "sorry": 376,
      "aw": 377,
      "ru": 378,
      "tonight": 379,
      "though": 380,
      "head": 381,
      "rea": 382,
      "make": 383,
      "should": 384,
      "bed": 385,
      "gon": 386,
      "down": 387,
      "di": 388,
      "xt": 389,
      "them": 390,
      "per": 391,
      "ase": 392,
      "ys": 393,
      "sch": 394,
      "getting": 395,
      "lea": 396,
      "try": 397,
      "pic": 398,
      "ive": 399,
      "play": 400,
      "nice": 401,
      "ster": 402,
      "lf": 403,
      "after": 404,
      "days": 405,
      "ny": 406,
      "har": 407,
      "ac": 408,
      "gonna": 409,
      "yes": 410,
      "yeah": 411,
      "does": 412,
      "better": 413,
      "sc": 414,
      "hi": 415,
      "watching": 416,
      "ber": 417,
      "ment": 418,
      "tle": 419,
      "gl": 420,
      "br": 421,
      "ga": 422,
      "xx": 423,
      "may": 424,
      "phone": 425,
      "ile": 426,
      "long": 427,
      "school": 428,
      "ang": 429,
      "ople": 430,
      "ies": 431,
      "hour": 432,
      "hey": 433,
      "people": 434,
      "00": 435,
      "cks": 436,
      "cause": 437,
      "didn": 438,
      "tu": 439,
      "bab": 440,
      "ree": 441,
      "om": 442,
      "where": 443,
      "him": 444,
      "mad": 445,
      "vie": 446,
      "thank": 447,
      "hate": 448,
      "awe": 449,
      "fi": 450,
      "ps": 451,
      "let": 452,
      "gg": 453,
      "lit": 454,
      "app": 455,
      "ans": 456,
      "ice": 457,
      "part": 458,
      "weekend": 459,
      "even": 460,
      "ear": 461,
      "anna": 462,
      "ick": 463,
      "tion": 464,
      "ms": 465,
      "min": 466,
      "awesome": 467,
      "tho": 468,
      "ci": 469,
      "gir": 470,
      "ought": 471,
      "ugh": 472,
      "ul": 473,
      "next": 474,
      "bro": 475,
      "never": 476,
      "cra": 477,
      "soon": 478,
      "best": 479,
      "kes": 480,
      "fir": 481,
      "dont": 482,
      "start": 483,
      "list": 484,
      "yy": 485,
      "cant": 486,
      "tal": 487,
      "were": 488,
      "cit": 489,
      "ama": 490,
      "his": 491,
      "sup": 492,
      "girl": 493,
      "fore": 494,
      "take": 495,
      "sho": 496,
      "pr": 497,
      "ways": 498,
      "car": 499,
      "sick": 500,
      "hu": 501,
      "working": 502,
      "year": 503,
      "ater": 504,
      "little": 505,
      "life": 506,
      "first": 507,
      "tired": 508,
      "age": 509,
      "most": 510,
      "wr": 511,
      "put": 512,
      "inter": 513,
      "tweet": 514,
      "wanna": 515,
      "bea": 516,
      "please": 517,
      "ser": 518,
      "sure": 519,
      "cou": 520,
      "bit": 521,
      "hur": 522,
      "call": 523,
      "ft": 524,
      "hel": 525,
      "everyone": 526,
      "doing": 527,
      "having": 528,
      "du": 529,
      "dam": 530,
      "being": 531,
      "ooo": 532,
      "ouse": 533,
      "mmer": 534,
      "mar": 535,
      "find": 536,
      "feeling": 537,
      "eat": 538,
      "dr": 539,
      "self": 540,
      "late": 541,
      "yay": 542,
      "rr": 543,
      "ste": 544,
      "done": 545,
      "zing": 546,
      "cool": 547,
      "cle": 548,
      "joy": 549,
      "ever": 550,
      "able": 551,
      "keep": 552,
      "cut": 553,
      "friends": 554,
      "wo": 555,
      "?!": 556,
      "cl": 557,
      "tri": 558,
      "da": 559,
      "house": 560,
      "always": 561,
      "zz": 562,
      "ner": 563,
      "already": 564,
      "ort": 565,
      "live": 566,
      "side": 567,
      "est": 568,
      "act": 569,
      "another": 570,
      "help": 571,
      "something": 572,
      "made": 573,
      "ya": 574,
      "luck": 575,
      "brea": 576,
      "ream": 577,
      "guys": 578,
      "til": 579,
      "bir": 580,
      "song": 581,
      "tra": 582,
      "enjoy": 583,
      "sit": 584,
      "dis": 585,
      "book": 586,
      "pret": 587,
      "full": 588,
      "because": 589,
      "cu": 590,
      "sha": 591,
      "looking": 592,
      "old": 593,
      "yet": 594,
      "ooks": 595,
      "sound": 596,
      "went": 597,
      "hours": 598,
      "big": 599,
      "lot": 600,
      "hell": 601,
      "before": 602,
      "movie": 603,
      "tell": 604,
      "vi": 605,
      "win": 606,
      "damn": 607,
      "par": 608,
      "je": 609,
      "away": 610,
      "int": 611,
      "summer": 612,
      "hot": 613,
      "thought": 614,
      "urn": 615,
      "unch": 616,
      "pretty": 617,
      "omg": 618,
      "ually": 619,
      "pla": 620,
      "ful": 621,
      "ance": 622,
      "dd": 623,
      "blo": 624,
      "maybe": 625,
      "bl": 626,
      "bus": 627,
      "tor": 628,
      "game": 629,
      "star": 630,
      "trying": 631,
      "pt": 632,
      "amazing": 633,
      "light": 634,
      "finish": 635,
      "aww": 636,
      "excit": 637,
      "check": 638,
      "listen": 639,
      "mus": 640,
      "guess": 641,
      "ii": 642,
      "el": 643,
      "10": 644,
      "wea": 645,
      "while": 646,
      "eeee": 647,
      "ily": 648,
      "finally": 649,
      "hear": 650,
      "kind": 651,
      "early": 652,
      "things": 653,
      "times": 654,
      "vis": 655,
      "friday": 656,
      "coming": 657,
      "hard": 658,
      "mom": 659,
      "ton": 660,
      "clo": 661,
      "fuck": 662,
      "fam": 663,
      "into": 664,
      "lost": 665,
      "left": 666,
      "des": 667,
      "bs": 668,
      "someone": 669,
      "wow": 670,
      "less": 671,
      "roo": 672,
      "gs": 673,
      "give": 674,
      "cer": 675,
      "ash": 676,
      "run": 677,
      "ds": 678,
      "les": 679,
      "birth": 680,
      "kid": 681,
      "nothing": 682,
      "same": 683,
      "bored": 684,
      "ure": 685,
      "stuff": 686,
      "face": 687,
      "missed": 688,
      "sin": 689,
      "pen": 690,
      "sucks": 691,
      "baby": 692,
      "ja": 693,
      "load": 694,
      "swee": 695,
      "glad": 696,
      "ated": 697,
      "sat": 698,
      "ward": 699,
      "party": 700,
      "boo": 701,
      "post": 702,
      "world": 703,
      "happen": 704,
      "set": 705,
      "sing": 706,
      "ked": 707,
      "weather": 708,
      "tr": 709,
      "birthday": 710,
      "later": 711,
      "break": 712,
      "music": 713,
      "many": 714,
      "real": 715,
      "looks": 716,
      "also": 717,
      "god": 718,
      "doesn": 719,
      "two": 720,
      "hair": 721,
      "vo": 722,
      "sk": 723,
      "ious": 724,
      "uu": 725,
      "add": 726,
      "saw": 727,
      "ise": 728,
      "free": 729,
      "might": 730,
      "wonder": 731,
      "hun": 732,
      "far": 733,
      "exam": 734,
      "spe": 735,
      "waiting": 736,
      "dri": 737,
      "stay": 738,
      "ange": 739,
      "actually": 740,
      "excited": 741,
      "those": 742,
      "tv": 743,
      "ity": 744,
      "makes": 745,
      "ason": 746,
      "meet": 747,
      "yester": 748,
      "din": 749,
      "line": 750,
      "zy": 751,
      "30": 752,
      "said": 753,
      "yesterday": 754,
      "vide": 755,
      "ach": 756,
      "fr": 757,
      "wal": 758,
      "thats": 759,
      "bla": 760,
      "cor": 761,
      "land": 762,
      "beaut": 763,
      "cold": 764,
      "since": 765,
      "until": 766,
      "em": 767,
      "few": 768,
      "upd": 769,
      "shit": 770,
      "net": 771,
      "gotta": 772,
      "ats": 773,
      "wake": 774,
      "boy": 775,
      "video": 776,
      "ding": 777,
      "talk": 778,
      "such": 779,
      "bb": 780,
      "ten": 781,
      "class": 782,
      "port": 783,
      "hahaha": 784,
      "around": 785,
      "pping": 786,
      "myself": 787,
      "dad": 788,
      "body": 789,
      "must": 790,
      "low": 791,
      "cha": 792,
      "count": 793,
      "tru": 794,
      "cho": 795,
      "found": 796,
      "monday": 797,
      "gt": 798,
      "bor": 799,
      "ates": 800,
      "bi": 801,
      "mber": 802,
      "leave": 803,
      "ger": 804,
      "wel": 805,
      "sounds": 806,
      "ating": 807,
      "under": 808,
      "mean": 809,
      "reme": 810,
      "iful": 811,
      "poor": 812,
      "least": 813,
      "plan": 814,
      "job": 815,
      "pho": 816,
      "cr": 817,
      "mind": 818,
      "sm": 819,
      "their": 820,
      "sunday": 821,
      "room": 822,
      "ction": 823,
      "haven": 824,
      "beautiful": 825,
      "pi": 826,
      "till": 827,
      "fer": 828,
      "wed": 829,
      "making": 830,
      "hehe": 831,
      "ary": 832,
      "turn": 833,
      "pain": 834,
      "gone": 835,
      "stop": 836,
      "top": 837,
      "ress": 838,
      "buy": 839,
      "beli": 840,
      "missing": 841,
      "ace": 842,
      "fast": 843,
      "okay": 844,
      "food": 845,
      "fav": 846,
      "pers": 847,
      "ture": 848,
      "lunch": 849,
      "oney": 850,
      "men": 851,
      "anything": 852,
      "gy": 853,
      "rest": 854,
      "tt": 855,
      "aaaa": 856,
      "med": 857,
      "mail": 858,
      "air": 859,
      "month": 860,
      "woke": 861,
      "grad": 862,
      "rough": 863,
      "whi": 864,
      "ken": 865,
      "family": 866,
      "cked": 867,
      "ache": 868,
      "almost": 869,
      "cute": 870,
      "isn": 871,
      "cket": 872,
      "xo": 873,
      "used": 874,
      "wanted": 875,
      "study": 876,
      "iphone": 877,
      "listening": 878,
      "soooo": 879,
      "ju": 880,
      "fully": 881,
      "funny": 882,
      "photo": 883,
      "picture": 884,
      "ley": 885,
      "hurts": 886,
      "ball": 887,
      "dream": 888,
      "sweet": 889,
      "cry": 890,
      "rep": 891,
      "place": 892,
      "dinner": 893,
      "super": 894,
      "everything": 895,
      "believe": 896,
      "bum": 897,
      "ence": 898,
      "welcome": 899,
      "sur": 900,
      "finished": 901,
      "playing": 902,
      "mess": 903,
      "anyone": 904,
      "forward": 905,
      "va": 906,
      "followers": 907,
      "thinking": 908,
      "tot": 909,
      "cof": 910,
      "clean": 911,
      "which": 912,
      "kill": 913,
      "name": 914,
      "pu": 915,
      "without": 916,
      "arent": 917,
      "stup": 918,
      "gi": 919,
      "gn": 920,
      "mine": 921,
      "als": 922,
      "hand": 923,
      "war": 924,
      "ze": 925,
      "coffee": 926,
      "tin": 927,
      "send": 928,
      "test": 929,
      "ank": 930,
      "stupid": 931,
      "fre": 932,
      "oot": 933,
      "ted": 934,
      "ap": 935,
      "ak": 936,
      "bur": 937,
      "ago": 938,
      "drink": 939,
      "totally": 940,
      "ping": 941,
      "through": 942,
      "ast": 943,
      "outside": 944,
      "bar": 945,
      "hang": 946,
      "these": 947,
      "au": 948,
      "ones": 949,
      "enough": 950,
      "raining": 951,
      "once": 952,
      "ness": 953,
      "sy": 954,
      "wrong": 955,
      "dan": 956,
      "anymore": 957,
      "press": 958,
      "chi": 959,
      "gra": 960,
      "cour": 961,
      "heart": 962,
      "satur": 963,
      "didnt": 964,
      "probab": 965,
      "mother": 966,
      "lor": 967,
      "probably": 968,
      "tweets": 969,
      "bye": 970,
      "weeks": 971,
      "ved": 972,
      "hhhh": 973,
      "care": 974,
      "came": 975,
      "hmm": 976,
      "ins": 977,
      "pped": 978,
      "person": 979,
      "comp": 980,
      "eating": 981,
      "minut": 982,
      "nor": 983,
      "money": 984,
      "remember": 985,
      "tom": 986,
      "sooo": 987,
      "hor": 988,
      "stand": 989,
      "view": 990,
      "busy": 991,
      "following": 992,
      "lle": 993,
      "tre": 994,
      "sim": 995,
      "cur": 996,
      "sed": 997,
      "pay": 998,
      "reading": 999,
      "brother": 1000,
      "vin": 1001,
      "hit": 1002,
      "ls": 1003,
      "ither": 1004,
      "serious": 1005,
      "beach": 1006,
      "half": 1007,
      "wants": 1008,
      "open": 1009,
      "20": 1010,
      "nn": 1011,
      "pass": 1012,
      "tun": 1013,
      "tic": 1014,
      "saturday": 1015,
      "lovely": 1016,
      "cre": 1017,
      "band": 1018,
      "vers": 1019,
      "cy": 1020,
      "whole": 1021,
      "taking": 1022,
      "io": 1023,
      "forgot": 1024,
      "seen": 1025,
      "kids": 1026,
      "fall": 1027,
      "news": 1028,
      "cong": 1029,
      "fly": 1030,
      "kinda": 1031,
      "wear": 1032,
      "high": 1033,
      "rock": 1034,
      "ces": 1035,
      "guy": 1036,
      "using": 1037,
      "cook": 1038,
      "says": 1039,
      "jun": 1040,
      "lin": 1041,
      "amer": 1042,
      "dec": 1043,
      "crazy": 1044,
      "pri": 1045,
      "comput": 1046,
      "son": 1047,
      "hopefully": 1048,
      "true": 1049,
      "headache": 1050,
      "both": 1051,
      "ask": 1052,
      "blog": 1053,
      "sent": 1054,
      "py": 1055,
      "took": 1056,
      "own": 1057,
      "fan": 1058,
      "congr": 1059,
      "hello": 1060,
      "soo": 1061,
      "idea": 1062,
      "lly": 1063,
      "cuz": 1064,
      "chill": 1065,
      "goodnight": 1066,
      "years": 1067,
      "town": 1068,
      "100": 1069,
      "proble": 1070,
      "vid": 1071,
      "pm": 1072,
      "ring": 1073,
      "ip": 1074,
      "woo": 1075,
      "course": 1076,
      "bring": 1077,
      "else": 1078,
      "wer": 1079,
      "jon": 1080,
      "eee": 1081,
      "lots": 1082,
      "dog": 1083,
      "lay": 1084,
      "sign": 1085,
      "fail": 1086,
      "hurt": 1087,
      "pick": 1088,
      "wasn": 1089,
      "girls": 1090,
      "shopping": 1091,
      "either": 1092,
      "ush": 1093,
      "12": 1094,
      "pics": 1095,
      "ia": 1096,
      "leaving": 1097,
      "cking": 1098,
      "iting": 1099,
      "sitting": 1100,
      "mat": 1101,
      "computer": 1102,
      "den": 1103,
      "ards": 1104,
      "black": 1105,
      "dar": 1106,
      "ney": 1107,
      "nite": 1108,
      "concer": 1109,
      "ling": 1110,
      "trip": 1111,
      "box": 1112,
      "feels": 1113,
      "clu": 1114,
      "bri": 1115,
      "internet": 1116,
      "lear": 1117,
      "fect": 1118,
      "twi": 1119,
      "cial": 1120,
      "cli": 1121,
      "cess": 1122,
      "alone": 1123,
      "mag": 1124,
      "rs": 1125,
      "couldn": 1126,
      "hung": 1127,
      "seems": 1128,
      "btw": 1129,
      "mit": 1130,
      "ticket": 1131,
      "office": 1132,
      "ana": 1133,
      "talking": 1134,
      "esday": 1135,
      "char": 1136,
      "space": 1137,
      "watched": 1138,
      "fl": 1139,
      "defin": 1140,
      "dif": 1141,
      "ummy": 1142,
      "heard": 1143,
      "tried": 1144,
      "vot": 1145,
      "stuck": 1146,
      "11": 1147,
      "mac": 1148,
      "needs": 1149,
      "lma": 1150,
      "ught": 1151,
      "loved": 1152,
      "favor": 1153,
      "change": 1154,
      "ng": 1155,
      "lad": 1156,
      "rible": 1157,
      "gets": 1158,
      "noon": 1159,
      "started": 1160,
      "train": 1161,
      "sw": 1162,
      "dro": 1163,
      "ations": 1164,
      "interest": 1165,
      "text": 1166,
      "suck": 1167,
      "lap": 1168,
      "seeing": 1169,
      "fix": 1170,
      "itch": 1171,
      "walk": 1172,
      "catch": 1173,
      "wont": 1174,
      "link": 1175,
      "sou": 1176,
      "eas": 1177,
      "reply": 1178,
      "bra": 1179,
      "ared": 1180,
      "email": 1181,
      "ions": 1182,
      "drive": 1183,
      "move": 1184,
      "thin": 1185,
      "sen": 1186,
      "online": 1187,
      "season": 1188,
      "mp": 1189,
      "kk": 1190,
      "shower": 1191,
      "fine": 1192,
      "quite": 1193,
      "dra": 1194,
      "suppo": 1195,
      "ahhh": 1196,
      "awake": 1197,
      "site": 1198,
      "mc": 1199,
      "engl": 1200,
      "ross": 1201,
      "smi": 1202,
      "breakfast": 1203,
      "stra": 1204,
      "word": 1205,
      "cell": 1206,
      "boring": 1207,
      "goes": 1208,
      "dead": 1209,
      "lon": 1210,
      "ately": 1211,
      "facebook": 1212,
      "tour": 1213,
      "gen": 1214,
      "told": 1215,
      "mid": 1216,
      "water": 1217,
      "yo": 1218,
      "cti": 1219,
      "sol": 1220,
      "quest": 1221,
      "ird": 1222,
      "seriously": 1223,
      "cover": 1224,
      "lmao": 1225,
      "33": 1226,
      "ped": 1227,
      "dou": 1228,
      "lucky": 1229,
      "cal": 1230,
      "pod": 1231,
      "frea": 1232,
      "city": 1233,
      "ep": 1234,
      "kin": 1235,
      "sunny": 1236,
      "ages": 1237,
      "spend": 1238,
      "oud": 1239,
      "oooooooo": 1240,
      "ried": 1241,
      "cup": 1242,
      "broke": 1243,
      "15": 1244,
      "update": 1245,
      "str": 1246,
      "key": 1247,
      "mr": 1248,
      "minutes": 1249,
      "bought": 1250,
      "ath": 1251,
      "asl": 1252,
      "june": 1253,
      "lic": 1254,
      "ici": 1255,
      "ris": 1256,
      "called": 1257,
      "hungry": 1258,
      "qui": 1259,
      "starting": 1260,
      "cat": 1261,
      "crap": 1262,
      "anyway": 1263,
      "sister": 1264,
      "dude": 1265,
      "concert": 1266,
      "ight": 1267,
      "stead": 1268,
      "works": 1269,
      "afternoon": 1270,
      "jeal": 1271,
      "laugh": 1272,
      "asleep": 1273,
      "reason": 1274,
      "yea": 1275,
      "colle": 1276,
      "form": 1277,
      "sty": 1278,
      "goo": 1279,
      "nap": 1280,
      "arch": 1281,
      "sta": 1282,
      "secon": 1283,
      "tube": 1284,
      "jealous": 1285,
      "favorite": 1286,
      "fair": 1287,
      "sleeping": 1288,
      "led": 1289,
      "grand": 1290,
      "bout": 1291,
      "ves": 1292,
      "perfect": 1293,
      "lax": 1294,
      "comple": 1295,
      "xd": 1296,
      "instead": 1297,
      "heading": 1298,
      "ned": 1299,
      "sigh": 1300,
      "gether": 1301,
      "scre": 1302,
      "cream": 1303,
      "pan": 1304,
      "store": 1305,
      "camp": 1306,
      "near": 1307,
      "sore": 1308,
      "died": 1309,
      "rent": 1310,
      "slow": 1311,
      "chat": 1312,
      "dress": 1313,
      "fortun": 1314,
      "join": 1315,
      "ahh": 1316,
      "sex": 1317,
      "dear": 1318,
      "meeting": 1319,
      "gradu": 1320,
      "cing": 1321,
      "cus": 1322,
      "exams": 1323,
      "album": 1324,
      "ven": 1325,
      "enjoying": 1326,
      "mmmm": 1327,
      "definite": 1328,
      "ced": 1329,
      "mach": 1330,
      "together": 1331,
      "holi": 1332,
      "mark": 1333,
      "sal": 1334,
      "pool": 1335,
      "wonderful": 1336,
      "short": 1337,
      "revis": 1338,
      "pet": 1339,
      "hoping": 1340,
      "relax": 1341,
      "definitely": 1342,
      "yyyy": 1343,
      "homework": 1344,
      "mov": 1345,
      "berry": 1346,
      "write": 1347,
      "chur": 1348,
      "roll": 1349,
      "running": 1350,
      "pray": 1351,
      "ian": 1352,
      "cast": 1353,
      "swi": 1354,
      "blu": 1355,
      "dow": 1356,
      "ars": 1357,
      "die": 1358,
      "problem": 1359,
      "burn": 1360,
      "goin": 1361,
      "moment": 1362,
      "rad": 1363,
      "boys": 1364,
      "fucking": 1365,
      "sometimes": 1366,
      "zed": 1367,
      "congrats": 1368,
      "awww": 1369,
      "gle": 1370,
      "bby": 1371,
      "ual": 1372,
      "visit": 1373,
      "flu": 1374,
      "gin": 1375,
      "urs": 1376,
      "close": 1377,
      "comes": 1378,
      "fire": 1379,
      "couple": 1380,
      "means": 1381,
      "ries": 1382,
      "anno": 1383,
      "xxx": 1384,
      "conf": 1385,
      "church": 1386,
      ";.": 1387,
      "200": 1388,
      "blood": 1389,
      "cent": 1390,
      "movies": 1391,
      "pow": 1392,
      "ital": 1393,
      "happened": 1394,
      "cept": 1395,
      "pat": 1396,
      "figu": 1397,
      "vac": 1398,
      "point": 1399,
      "mum": 1400,
      "download": 1401,
      "fil": 1402,
      "prom": 1403,
      "evening": 1404,
      "loves": 1405,
      "fing": 1406,
      "eyes": 1407,
      "worth": 1408,
      "youtube": 1409,
      "tain": 1410,
      "ming": 1411,
      "ute": 1412,
      "laptop": 1413,
      "final": 1414,
      "iso": 1415,
      "shine": 1416,
      "appo": 1417,
      "1st": 1418,
      "mood": 1419,
      "order": 1420,
      "offici": 1421,
      "ane": 1422,
      "account": 1423,
      "dance": 1424,
      "poss": 1425,
      "via": 1426,
      "ppl": 1427,
      "tea": 1428,
      "parent": 1429,
      "agree": 1430,
      "weird": 1431,
      "met": 1432,
      "ctor": 1433,
      "months": 1434,
      "kick": 1435,
      "unfortun": 1436,
      "annoy": 1437,
      "tou": 1438,
      "por": 1439,
      "green": 1440,
      "gym": 1441,
      "num": 1442,
      "uk": 1443,
      "cele": 1444,
      "choco": 1445,
      "chee": 1446,
      "broken": 1447,
      "ipod": 1448,
      "cake": 1449,
      "reali": 1450,
      "ko": 1451,
      "pra": 1452,
      "gar": 1453,
      "math": 1454,
      "lie": 1455,
      "thro": 1456,
      "shir": 1457,
      "sid": 1458,
      "studying": 1459,
      "vice": 1460,
      "hoo": 1461,
      "page": 1462,
      "songs": 1463,
      "ale": 1464,
      "lil": 1465,
      "possi": 1466,
      "comment": 1467,
      "wt": 1468,
      "rrrr": 1469,
      "gard": 1470,
      "second": 1471,
      "fb": 1472,
      "story": 1473,
      "chick": 1474,
      "inst": 1475,
      "park": 1476,
      "understand": 1477,
      "web": 1478,
      "english": 1479,
      "loving": 1480,
      "sus": 1481,
      "aaa": 1482,
      "interesting": 1483,
      "iness": 1484,
      "bat": 1485,
      "writing": 1486,
      "seem": 1487,
      "cted": 1488,
      "kit": 1489,
      "chang": 1490,
      "tickets": 1491,
      "differ": 1492,
      "ont": 1493,
      "ters": 1494,
      "und": 1495,
      "sub": 1496,
      "squ": 1497,
      "upload": 1498,
      "episo": 1499,
      "rand": 1500,
      "gas": 1501,
      "jonas": 1502,
      "window": 1503,
      "ssss": 1504,
      "tie": 1505,
      "shop": 1506,
      "reci": 1507,
      "past": 1508,
      "answer": 1509,
      "ade": 1510,
      "ka": 1511,
      "ren": 1512,
      "team": 1513,
      "pot": 1514,
      "xoxo": 1515,
      "knew": 1516,
      "moon": 1517,
      "os": 1518,
      "london": 1519,
      "uni": 1520,
      "awards": 1521,
      "ker": 1522,
      "ride": 1523,
      "mb": 1524,
      "complete": 1525,
      "worst": 1526,
      "uring": 1527,
      "mmm": 1528,
      "smile": 1529,
      "supposed": 1530,
      "flight": 1531,
      "chocolate": 1532,
      "fli": 1533,
      "thurs": 1534,
      "wedding": 1535,
      "40": 1536,
      "search": 1537,
      "ue": 1538,
      "moving": 1539,
      "rist": 1540,
      "bless": 1541,
      "bot": 1542,
      "saying": 1543,
      "fell": 1544,
      "beat": 1545,
      "hold": 1546,
      "wishing": 1547,
      ").": 1548,
      "enter": 1549,
      "parents": 1550,
      "ban": 1551,
      "yep": 1552,
      "gest": 1553,
      "ills": 1554,
      "!.": 1555,
      "card": 1556,
      "gor": 1557,
      "forget": 1558,
      "three": 1559,
      "unfortunately": 1560,
      "cd": 1561,
      "tweeting": 1562,
      "ition": 1563,
      "lady": 1564,
      "comm": 1565,
      "sleepy": 1566,
      "unk": 1567,
      "ob": 1568,
      "aren": 1569,
      "touch": 1570,
      "upset": 1571,
      "board": 1572,
      "depress": 1573,
      "throat": 1574,
      "power": 1575,
      "tory": 1576,
      "fit": 1577,
      "ina": 1578,
      "mal": 1579,
      "driving": 1580,
      "mer": 1581,
      "ult": 1582,
      "mas": 1583,
      "proje": 1584,
      "cleaning": 1585,
      "wing": 1586,
      "dreams": 1587,
      "date": 1588,
      "eye": 1589,
      "foot": 1590,
      "cos": 1591,
      "tee": 1592,
      "yu": 1593,
      "appoint": 1594,
      "sunshine": 1595,
      "vel": 1596,
      "sle": 1597,
      "words": 1598,
      "res": 1599,
      "miley": 1600,
      "pictures": 1601,
      "ised": 1602,
      "recor": 1603,
      "op": 1604,
      "kn": 1605,
      "ons": 1606,
      "val": 1607,
      "ug": 1608,
      "hhh": 1609,
      "road": 1610,
      "door": 1611,
      "horrible": 1612,
      "paper": 1613,
      "ils": 1614,
      "ooooo": 1615,
      "tan": 1616,
      "ist": 1617,
      "50": 1618,
      "hea": 1619,
      "leg": 1620,
      "gave": 1621,
      "sco": 1622,
      "illy": 1623,
      "followfriday": 1624,
      "mou": 1625,
      "ey": 1626,
      "wit": 1627,
      "whats": 1628,
      "quick": 1629,
      "gan": 1630,
      "easy": 1631,
      "eeps": 1632,
      "due": 1633,
      "iled": 1634,
      "college": 1635,
      "chance": 1636,
      "ship": 1637,
      "drinking": 1638,
      "ali": 1639,
      "mic": 1640,
      "worry": 1641,
      "ground": 1642,
      "cially": 1643,
      "garden": 1644,
      "stress": 1645,
      "case": 1646,
      "brow": 1647,
      "wouldn": 1648,
      "hugs": 1649,
      "fic": 1650,
      "prof": 1651,
      "ky": 1652,
      "apparent": 1653,
      "jor": 1654,
      "ouch": 1655,
      "bday": 1656,
      "sive": 1657,
      "brit": 1658,
      "nat": 1659,
      "ience": 1660,
      "produ": 1661,
      "xxxx": 1662,
      "fight": 1663,
      "worse": 1664,
      "dun": 1665,
      "han": 1666,
      "safe": 1667,
      "mtv": 1668,
      "ines": 1669,
      "special": 1670,
      "absol": 1671,
      "blue": 1672,
      "tuesday": 1673,
      "sis": 1674,
      "hahah": 1675,
      "pleas": 1676,
      "gover": 1677,
      "cts": 1678,
      "longer": 1679,
      "kno": 1680,
      "ica": 1681,
      "bud": 1682,
      "holiday": 1683,
      "apple": 1684,
      "vote": 1685,
      "flo": 1686,
      "lier": 1687,
      "doesnt": 1688,
      "mil": 1689,
      "rather": 1690,
      "stre": 1691,
      "stor": 1692,
      "fm": 1693,
      "andy": 1694,
      "deli": 1695,
      "scared": 1696,
      "slept": 1697,
      "apparently": 1698,
      "shame": 1699,
      "plus": 1700,
      "thx": 1701,
      "wtf": 1702,
      "camer": 1703,
      "hum": 1704,
      "cannot": 1705,
      "cous": 1706,
      "tur": 1707,
      "iiii": 1708,
      "small": 1709,
      "rid": 1710,
      "expe": 1711,
      "fish": 1712,
      "ended": 1713,
      "wash": 1714,
      "father": 1715,
      "eu": 1716,
      "lar": 1717,
      "webs": 1718,
      "huge": 1719,
      "voice": 1720,
      "books": 1721,
      "teach": 1722,
      "pop": 1723,
      "vs": 1724,
      "tex": 1725,
      "lets": 1726,
      "updates": 1727,
      "nope": 1728,
      "forever": 1729,
      "jam": 1730,
      "inv": 1731,
      "white": 1732,
      "spent": 1733,
      "ign": 1734,
      "dv": 1735,
      "event": 1736,
      "ics": 1737,
      "rip": 1738,
      "babe": 1739,
      "sme": 1740,
      "glass": 1741,
      "thinks": 1742,
      "ev": 1743,
      "sn": 1744,
      "plans": 1745,
      "grow": 1746,
      "pup": 1747,
      "warm": 1748,
      "pur": 1749,
      "graph": 1750,
      "vacation": 1751,
      "myspace": 1752,
      "conne": 1753,
      "beer": 1754,
      "hanging": 1755,
      "earlier": 1756,
      "bitch": 1757,
      "ants": 1758,
      "lazy": 1759,
      "18": 1760,
      "david": 1761,
      "wondering": 1762,
      "piss": 1763,
      "decid": 1764,
      "bow": 1765,
      "crash": 1766,
      "remind": 1767,
      "wall": 1768,
      "sky": 1769,
      "ww": 1770,
      "espe": 1771,
      "support": 1772,
      "aust": 1773,
      "fresh": 1774,
      "absolute": 1775,
      "spo": 1776,
      "ran": 1777,
      "radio": 1778,
      "child": 1779,
      "dm": 1780,
      "ef": 1781,
      "website": 1782,
      "gun": 1783,
      "idk": 1784,
      "luv": 1785,
      "appreci": 1786,
      "ift": 1787,
      "ering": 1788,
      "round": 1789,
      "google": 1790,
      "shirt": 1791,
      "message": 1792,
      "ire": 1793,
      "pie": 1794,
      "kers": 1795,
      "fant": 1796,
      "lone": 1797,
      "sims": 1798,
      "celebr": 1799,
      "shows": 1800,
      "bly": 1801,
      "tist": 1802,
      "exact": 1803,
      "especially": 1804,
      "ele": 1805,
      "fans": 1806,
      "igh": 1807,
      "att": 1808,
      "thursday": 1809,
      "stomach": 1810,
      "surpr": 1811,
      "sist": 1812,
      "chan": 1813,
      "ond": 1814,
      "during": 1815,
      "learn": 1816,
      "july": 1817,
      "bt": 1818,
      "current": 1819,
      "tha": 1820,
      "bbq": 1821,
      "hosp": 1822,
      "ben": 1823,
      "different": 1824,
      "issu": 1825,
      "pizz": 1826,
      "!?": 1827,
      "sadly": 1828,
      "lame": 1829,
      "mate": 1830,
      "heal": 1831,
      "fren": 1832,
      "sell": 1833,
      "hee": 1834,
      "hrs": 1835,
      "fat": 1836,
      "tel": 1837,
      "looked": 1838,
      "stick": 1839,
      "number": 1840,
      "nick": 1841,
      "turned": 1842,
      "deal": 1843,
      "screen": 1844,
      "figure": 1845,
      "tem": 1846,
      "pack": 1847,
      "fab": 1848,
      "enti": 1849,
      "yup": 1850,
      "joh": 1851,
      "front": 1852,
      "arri": 1853,
      "law": 1854,
      "shall": 1855,
      "yummy": 1856,
      "chicken": 1857,
      "allow": 1858,
      "24": 1859,
      "tech": 1860,
      ".!": 1861,
      "havent": 1862,
      "mix": 1863,
      "hahahaha": 1864,
      "each": 1865,
      "def": 1866,
      "boyfriend": 1867,
      "inside": 1868,
      "hug": 1869,
      "fever": 1870,
      "alright": 1871,
      "random": 1872,
      "fest": 1873,
      "usted": 1874,
      "vy": 1875,
      "packing": 1876,
      "jus": 1877,
      "mis": 1878,
      "camera": 1879,
      "tummy": 1880,
      "rainy": 1881,
      "meant": 1882,
      "club": 1883,
      "cri": 1884,
      "mins": 1885,
      "airport": 1886,
      "crying": 1887,
      "hy": 1888,
      "liked": 1889,
      "cred": 1890,
      "2day": 1891,
      "uuuu": 1892,
      "memor": 1893,
      "cont": 1894,
      "cas": 1895,
      "nin": 1896,
      "games": 1897,
      "cid": 1898,
      "van": 1899,
      "pizza": 1900,
      "plain": 1901,
      "wife": 1902,
      "bike": 1903,
      "dang": 1904,
      "project": 1905,
      "save": 1906,
      "episode": 1907,
      "bas": 1908,
      "cheese": 1909,
      "ican": 1910,
      "ford": 1911,
      "lla": 1912,
      "officially": 1913,
      "except": 1914,
      "ima": 1915,
      "photos": 1916,
      "gosh": 1917,
      "graduation": 1918,
      "lia": 1919,
      "geous": 1920,
      "argh": 1921,
      "doctor": 1922,
      "nie": 1923,
      "exper": 1924,
      "lent": 1925,
      "smell": 1926,
      "resp": 1927,
      "bee": 1928,
      "ctive": 1929,
      "sam": 1930,
      "llen": 1931,
      "finals": 1932,
      "wedn": 1933,
      "worked": 1934,
      "felt": 1935,
      "share": 1936,
      "dia": 1937,
      "que": 1938,
      "absolutely": 1939,
      "decided": 1940,
      "lies": 1941,
      "fy": 1942,
      "loo": 1943,
      "addic": 1944,
      "hind": 1945,
      "mention": 1946,
      "2nd": 1947,
      "hubby": 1948,
      "hmmm": 1949,
      "twilight": 1950,
      "shoes": 1951,
      "proud": 1952,
      "kiss": 1953,
      "ier": 1954,
      "dge": 1955,
      "brothers": 1956,
      "cs": 1957,
      "whate": 1958,
      "gig": 1959,
      "vill": 1960,
      "john": 1961,
      "19": 1962,
      "ilar": 1963,
      "?!?!": 1964,
      "gee": 1965,
      "sold": 1966,
      "rele": 1967,
      "pull": 1968,
      "lonely": 1969,
      "interview": 1970,
      "hospital": 1971,
      "deck": 1972,
      "yourself": 1973,
      "wine": 1974,
      "mel": 1975,
      "sum": 1976,
      "played": 1977,
      "annoying": 1978,
      "needed": 1979,
      "throw": 1980,
      "french": 1981,
      "ppy": 1982,
      "uh": 1983,
      "fact": 1984,
      "cross": 1985,
      "hah": 1986,
      "living": 1987,
      "tay": 1988,
      "ki": 1989,
      "wednesday": 1990,
      "len": 1991,
      "gorgeous": 1992,
      "vir": 1993,
      "peace": 1994,
      "ulous": 1995,
      "exciting": 1996,
      "oun": 1997,
      "mes": 1998,
      "note": 1999,
      "present": 2000,
      "wood": 2001,
      "starts": 2002,
      "bath": 2003,
      "exha": 2004,
      "rel": 2005,
      "disappoint": 2006,
      "!)": 2007,
      "ann": 2008,
      "pink": 2009,
      "install": 2010,
      "shoot": 2011,
      "wishes": 2012,
      "ughter": 2013,
      "question": 2014,
      "exactly": 2015,
      "possible": 2016,
      "business": 2017,
      "ila": 2018,
      "keeps": 2019,
      "taken": 2020,
      "feet": 2021,
      "umb": 2022,
      "rew": 2023,
      "guit": 2024,
      "deser": 2025,
      "dire": 2026,
      "yyy": 2027,
      "ending": 2028,
      "bon": 2029,
      "gging": 2030,
      "ild": 2031,
      "eh": 2032,
      "mode": 2033,
      "apart": 2034,
      "emp": 2035,
      "thes": 2036,
      "mothers": 2037,
      "sar": 2038,
      "scary": 2039,
      "ties": 2040,
      "grou": 2041,
      "hates": 2042,
      "arm": 2043,
      "mill": 2044,
      "sand": 2045,
      "goodbye": 2046,
      "ments": 2047,
      "drunk": 2048,
      "astic": 2049,
      "iz": 2050,
      "16": 2051,
      "service": 2052,
      "jum": 2053,
      "log": 2054,
      "zzzz": 2055,
      "appe": 2056,
      "everybody": 2057,
      "(:": 2058,
      "17": 2059,
      "vol": 2060,
      "isnt": 2061,
      "bucks": 2062,
      "happens": 2063,
      "ray": 2064,
      "det": 2065,
      "poo": 2066,
      "ham": 2067,
      "shut": 2068,
      "gay": 2069,
      "dying": 2070,
      "knows": 2071,
      "behind": 2072,
      "13": 2073,
      "along": 2074,
      "realized": 2075,
      "whatever": 2076,
      "lli": 2077,
      "ada": 2078,
      "host": 2079,
      "giving": 2080,
      "vic": 2081,
      "vent": 2082,
      "track": 2083,
      "pes": 2084,
      "edu": 2085,
      "west": 2086,
      "trans": 2087,
      "company": 2088,
      "gut": 2089,
      "cious": 2090,
      "wat": 2091,
      "guitar": 2092,
      "gettin": 2093,
      "film": 2094,
      "ative": 2095,
      "minute": 2096,
      "waking": 2097,
      "walking": 2098,
      "ses": 2099,
      "vegas": 2100,
      "cali": 2101,
      "although": 2102,
      "imag": 2103,
      "aller": 2104,
      "eeeeeeee": 2105,
      "table": 2106,
      "clothes": 2107,
      "posit": 2108,
      "lose": 2109,
      "burnt": 2110,
      "relaxing": 2111,
      "ohh": 2112,
      "25": 2113,
      "killing": 2114,
      "resu": 2115,
      "state": 2116,
      "extra": 2117,
      "ical": 2118,
      "yours": 2119,
      "health": 2120,
      "plane": 2121,
      "alot": 2122,
      "rob": 2123,
      "version": 2124,
      "dat": 2125,
      "dark": 2126,
      "fantastic": 2127,
      "mming": 2128,
      "pub": 2129,
      "market": 2130,
      "bay": 2131,
      "cc": 2132,
      "sli": 2133,
      "dio": 2134,
      "fill": 2135,
      "videos": 2136,
      "death": 2137,
      "gram": 2138,
      "col": 2139,
      "street": 2140,
      "san": 2141,
      "jer": 2142,
      "nights": 2143,
      "mommy": 2144,
      "pc": 2145,
      "09": 2146,
      ":'": 2147,
      "ado": 2148,
      "terrible": 2149,
      "speak": 2150,
      "revision": 2151,
      "tween": 2152,
      "wind": 2153,
      "brain": 2154,
      "mob": 2155,
      "main": 2156,
      "huh": 2157,
      "ession": 2158,
      "lan": 2159,
      "mend": 2160,
      "enjoyed": 2161,
      "hat": 2162,
      "posted": 2163,
      "single": 2164,
      "ror": 2165,
      "bal": 2166,
      "bag": 2167,
      "aint": 2168,
      "mcfly": 2169,
      "ited": 2170,
      "non": 2171,
      "clear": 2172,
      "ano": 2173,
      "passed": 2174,
      "hangover": 2175,
      "straight": 2176,
      "cough": 2177,
      "indeed": 2178,
      "yum": 2179,
      "shi": 2180,
      "vious": 2181,
      "lakers": 2182,
      "pal": 2183,
      "flow": 2184,
      "dig": 2185,
      "record": 2186,
      "ahead": 2187,
      "spir": 2188,
      "mall": 2189,
      "shar": 2190,
      "country": 2191,
      "between": 2192,
      "trou": 2193,
      "daughter": 2194,
      "coz": 2195,
      "build": 2196,
      "ield": 2197,
      "staying": 2198,
      "color": 2199,
      "14": 2200,
      "dest": 2201,
      "history": 2202,
      "lately": 2203,
      "singing": 2204,
      "ava": 2205,
      "asked": 2206,
      "orts": 2207,
      "shin": 2208,
      "ooh": 2209,
      "heat": 2210,
      "wearing": 2211,
      "shot": 2212,
      "sug": 2213,
      "headed": 2214,
      "gust": 2215,
      "rd": 2216,
      "bummed": 2217,
      "ext": 2218,
      "dies": 2219,
      "ork": 2220,
      "nose": 2221,
      "cheer": 2222,
      "major": 2223,
      "ging": 2224,
      "chu": 2225,
      "jack": 2226,
      "spot": 2227,
      "trail": 2228,
      "congrat": 2229,
      "hon": 2230,
      "ings": 2231,
      "hus": 2232,
      "kat": 2233,
      "fml": 2234,
      "ffic": 2235,
      "smo": 2236,
      "cakes": 2237,
      "doll": 2238,
      "hay": 2239,
      "dvd": 2240,
      "fut": 2241,
      "changed": 2242,
      "usually": 2243,
      "))": 2244,
      "profile": 2245,
      "completely": 2246,
      "feed": 2247,
      "vip": 2248,
      "daddy": 2249,
      "cident": 2250,
      "trouble": 2251,
      "hotel": 2252,
      "fla": 2253,
      "nobody": 2254,
      "freaking": 2255,
      "cru": 2256,
      "sexy": 2257,
      "currently": 2258,
      "rece": 2259,
      "llll": 2260,
      "awful": 2261,
      "nut": 2262,
      "type": 2263,
      "info": 2264,
      "traffic": 2265,
      "nia": 2266,
      "disappointed": 2267,
      "bloody": 2268,
      "begin": 2269,
      "ically": 2270,
      "austra": 2271,
      "logy": 2272,
      "fingers": 2273,
      "worried": 2274,
      "hav": 2275,
      "dogs": 2276,
      "watchin": 2277,
      "unes": 2278,
      "bun": 2279,
      "south": 2280,
      "ville": 2281,
      "prin": 2282,
      "commend": 2283,
      "nel": 2284,
      "cousin": 2285,
      "60": 2286,
      "none": 2287,
      "bc": 2288,
      "dle": 2289,
      "oc": 2290,
      "kar": 2291,
      "moved": 2292,
      "000": 2293,
      "bank": 2294,
      "exhausted": 2295,
      "((": 2296,
      "cam": 2297,
      "euro": 2298,
      "ruin": 2299,
      "grade": 2300,
      "onto": 2301,
      "blah": 2302,
      "taylor": 2303,
      "design": 2304,
      "group": 2305,
      "others": 2306,
      "chris": 2307,
      "shout": 2308,
      "recommend": 2309,
      "45": 2310,
      "chic": 2311,
      "bright": 2312,
      "rrr": 2313,
      "chillin": 2314,
      "pissed": 2315,
      "proper": 2316,
      "disney": 2317,
      "yr": 2318,
      "young": 2319,
      "closed": 2320,
      "itunes": 2321,
      "four": 2322,
      "tiv": 2323,
      "somewhere": 2324,
      "caught": 2325,
      "suggest": 2326,
      "matter": 2327,
      "nearly": 2328,
      "mouth": 2329,
      "spending": 2330,
      "dunno": 2331,
      "spam": 2332,
      "storm": 2333,
      "inks": 2334,
      "nyc": 2335,
      "mobile": 2336,
      "joe": 2337,
      "fixed": 2338,
      "sss": 2339,
      "raid": 2340,
      "magic": 2341,
      "hilar": 2342,
      "hands": 2343,
      "nah": 2344,
      "double": 2345,
      "maths": 2346,
      "sort": 2347,
      "congratul": 2348,
      "atta": 2349,
      "ler": 2350,
      "neigh": 2351,
      "demi": 2352,
      "woman": 2353,
      "appreciate": 2354,
      "ends": 2355,
      "ili": 2356,
      "fol": 2357,
      "wk": 2358,
      "problems": 2359,
      "bf": 2360,
      "blast": 2361,
      "gggg": 2362,
      "future": 2363,
      "fed": 2364,
      "takes": 2365,
      "drop": 2366,
      "oooooo": 2367,
      "wise": 2368,
      "silly": 2369,
      "lm": 2370,
      "sooooo": 2371,
      "wet": 2372,
      "suc": 2373,
      "ftw": 2374,
      "honey": 2375,
      "fox": 2376,
      "ener": 2377,
      "fro": 2378,
      "husband": 2379,
      "neck": 2380,
      "kate": 2381,
      "theres": 2382,
      "bour": 2383,
      "desk": 2384,
      "sale": 2385,
      "apo": 2386,
      "tweetdeck": 2387,
      "quiet": 2388,
      "jen": 2389,
      "windows": 2390,
      "normal": 2391,
      "stal": 2392,
      "stopped": 2393,
      "bill": 2394,
      "manag": 2395,
      "christ": 2396,
      "sna": 2397,
      "ston": 2398,
      "cap": 2399,
      "bio": 2400,
      "match": 2401,
      "usual": 2402,
      "base": 2403,
      "blackberry": 2404,
      "gri": 2405,
      "bull": 2406,
      "secre": 2407,
      "iling": 2408,
      "hew": 2409,
      "puppy": 2410,
      "cting": 2411,
      "rus": 2412,
      "plz": 2413,
      "swimming": 2414,
      "ud": 2415,
      "braz": 2416,
      "bummer": 2417,
      "doin": 2418,
      "epic": 2419,
      "american": 2420,
      "training": 2421,
      "etc": 2422,
      "background": 2423,
      "laying": 2424,
      "ctice": 2425,
      "contin": 2426,
      "consid": 2427,
      "aaaaaaaa": 2428,
      "pin": 2429,
      "accident": 2430,
      "sense": 2431,
      "soft": 2432,
      "availa": 2433,
      "hilarious": 2434,
      "tat": 2435,
      "practice": 2436,
      "flat": 2437,
      "pair": 2438,
      "adam": 2439,
      "mont": 2440,
      "sity": 2441,
      "stat": 2442,
      "review": 2443,
      "confused": 2444,
      "tit": 2445,
      "talent": 2446,
      "dancing": 2447,
      "classes": 2448,
      "middle": 2449,
      "ron": 2450,
      "sea": 2451,
      "tery": 2452,
      "conta": 2453,
      "square": 2454,
      "doubt": 2455,
      "mini": 2456,
      "copy": 2457,
      "planning": 2458,
      "thru": 2459,
      "hood": 2460,
      "spring": 2461,
      "germany": 2462,
      "dom": 2463,
      "hone": 2464,
      "phones": 2465,
      "xi": 2466,
      "ising": 2467,
      "cancell": 2468,
      "available": 2469,
      "jay": 2470,
      "cher": 2471,
      "certain": 2472,
      "schedu": 2473,
      "90": 2474,
      "chel": 2475,
      "writ": 2476,
      "jk": 2477,
      "nation": 2478,
      "calling": 2479,
      "inten": 2480,
      "import": 2481,
      "seat": 2482,
      "gener": 2483,
      "often": 2484,
      "field": 2485,
      "hanna": 2486,
      "hills": 2487,
      "series": 2488,
      "paid": 2489,
      "hes": 2490,
      "degre": 2491,
      "oops": 2492,
      "rac": 2493,
      "congratulations": 2494,
      "yah": 2495,
      "80": 2496,
      "tice": 2497,
      "peeps": 2498,
      "ison": 2499,
      "bel": 2500,
      "prob": 2501,
      "france": 2502,
      "trek": 2503,
      "teeth": 2504,
      "lead": 2505,
      "verse": 2506,
      "expen": 2507,
      "legs": 2508,
      "failed": 2509,
      "favour": 2510,
      "limit": 2511,
      "laund": 2512,
      "alex": 2513,
      "thoughts": 2514,
      "ered": 2515,
      "stri": 2516,
      "success": 2517,
      "taste": 2518,
      "ded": 2519,
      "3rd": 2520,
      "ature": 2521,
      "miles": 2522,
      "ior": 2523,
      "code": 2524,
      "lake": 2525,
      "skin": 2526,
      "2009": 2527,
      "asking": 2528,
      "buddy": 2529,
      "egg": 2530,
      "block": 2531,
      "dentist": 2532,
      "followed": 2533,
      "badly": 2534,
      "clou": 2535,
      "glasses": 2536,
      "arti": 2537,
      "eng": 2538,
      "dc": 2539,
      "laundry": 2540,
      "?.": 2541,
      "dry": 2542,
      "starbucks": 2543,
      "trailer": 2544,
      "hasn": 2545,
      "hero": 2546,
      "learning": 2547,
      "anim": 2548,
      "jes": 2549,
      "couldnt": 2550,
      "vous": 2551,
      "brand": 2552,
      "dddd": 2553,
      "covered": 2554,
      "putting": 2555,
      "'.": 2556,
      "gold": 2557,
      "bru": 2558,
      "yall": 2559,
      "inclu": 2560,
      "chicago": 2561,
      "shes": 2562,
      "choice": 2563,
      "strong": 2564,
      "program": 2565,
      ":'(": 2566,
      "ular": 2567,
      "milk": 2568,
      "push": 2569,
      "race": 2570,
      "atl": 2571,
      "dropped": 2572,
      "sending": 2573,
      "bother": 2574,
      "aun": 2575,
      "som": 2576,
      "australia": 2577,
      "anda": 2578,
      "knee": 2579,
      "gutted": 2580,
      "dnt": 2581,
      "return": 2582,
      "bff": 2583,
      "msn": 2584,
      "cost": 2585,
      "gro": 2586,
      "bare": 2587,
      "emo": 2588,
      "suppose": 2589,
      "station": 2590,
      "button": 2591,
      "ol": 2592,
      "feelin": 2593,
      "loads": 2594,
      "anyways": 2595,
      "ahhhhh": 2596,
      "honest": 2597,
      "cancelled": 2598,
      "darn": 2599,
      "wasnt": 2600,
      "sted": 2601,
      "earth": 2602,
      "lines": 2603,
      "checking": 2604,
      "spell": 2605,
      "bug": 2606,
      "helping": 2607,
      "falling": 2608,
      "nervous": 2609,
      "gue": 2610,
      "crack": 2611,
      "style": 2612,
      "hm": 2613,
      "channel": 2614,
      "entire": 2615,
      "swine": 2616,
      "likes": 2617,
      "gged": 2618,
      "bunch": 2619,
      "holy": 2620,
      "trend": 2621,
      "depressed": 2622,
      "floor": 2623,
      "exc": 2624,
      "nic": 2625,
      "kidding": 2626,
      "orig": 2627,
      "issues": 2628,
      "pee": 2629,
      "ctions": 2630,
      "five": 2631,
      "woot": 2632,
      "av": 2633,
      "versity": 2634,
      "shouldn": 2635,
      "step": 2636,
      "thunder": 2637,
      "kay": 2638,
      "keeping": 2639,
      "secret": 2640,
      "york": 2641,
      "ustr": 2642,
      "ador": 2643,
      "ideas": 2644,
      "bing": 2645,
      "notic": 2646,
      "article": 2647,
      "cky": 2648,
      "boss": 2649,
      "ahhhh": 2650,
      "afraid": 2651,
      "extreme": 2652,
      "important": 2653,
      "za": 2654,
      "afford": 2655,
      "hr": 2656,
      "yard": 2657,
      "impress": 2658,
      "scr": 2659,
      "player": 2660,
      "thanx": 2661,
      "bird": 2662,
      "lat": 2663,
      "cried": 2664,
      "tar": 2665,
      "syste": 2666,
      "hannah": 2667,
      "kitty": 2668,
      "everyday": 2669,
      "personal": 2670,
      "mart": 2671,
      "ami": 2672,
      "ches": 2673,
      "twittering": 2674,
      "social": 2675,
      "killed": 2676,
      "tooth": 2677,
      "b4": 2678,
      "ws": 2679,
      "danny": 2680,
      "calls": 2681,
      "xbox": 2682,
      "ladies": 2683,
      "island": 2684,
      "somebody": 2685,
      "tweeps": 2686,
      "buying": 2687,
      "master": 2688,
      "become": 2689,
      "howe": 2690,
      "hill": 2691,
      "allowed": 2692,
      "coo": 2693,
      "lver": 2694,
      "mass": 2695,
      "august": 2696,
      "bottle": 2697,
      "finding": 2698,
      "ched": 2699,
      "unless": 2700,
      "hook": 2701,
      "rocks": 2702,
      "span": 2703,
      "freakin": 2704,
      "cheers": 2705,
      "area": 2706,
      "temp": 2707,
      "losing": 2708,
      "midnight": 2709,
      "arrived": 2710,
      "jour": 2711,
      "nu": 2712,
      "assign": 2713,
      "mama": 2714,
      "ents": 2715,
      "pls": 2716,
      "allerg": 2717,
      "expensive": 2718,
      "lied": 2719,
      "delicious": 2720,
      "tori": 2721,
      "morow": 2722,
      "lip": 2723,
      "telling": 2724,
      "however": 2725,
      "oooh": 2726,
      "promise": 2727,
      "breaking": 2728,
      "bear": 2729,
      "loss": 2730,
      "weight": 2731,
      "checked": 2732,
      "respon": 2733,
      "workout": 2734,
      "sunburn": 2735,
      "stru": 2736,
      "fra": 2737,
      "tag": 2738,
      "anywhere": 2739,
      "cree": 2740,
      "loud": 2741,
      "sni": 2742,
      "libr": 2743,
      "depressing": 2744,
      "mornin": 2745,
      "updated": 2746,
      "gotten": 2747,
      "happening": 2748,
      "positive": 2749,
      "jb": 2750,
      "snow": 2751,
      "tttt": 2752,
      "bre": 2753,
      "ene": 2754,
      "shift": 2755,
      "ns": 2756,
      "swe": 2757,
      "wis": 2758,
      "wro": 2759,
      "bell": 2760,
      "dep": 2761,
      "misses": 2762,
      "essay": 2763,
      "against": 2764,
      "cla": 2765,
      "pants": 2766,
      "iv": 2767,
      "experience": 2768,
      "finger": 2769,
      "outta": 2770,
      "sey": 2771,
      "official": 2772,
      "tonite": 2773,
      "folks": 2774,
      "bey": 2775,
      "joke": 2776,
      "frustr": 2777,
      "dir": 2778,
      "corre": 2779,
      "favourite": 2780,
      "iron": 2781,
      "trust": 2782,
      "brazil": 2783,
      "lack": 2784,
      "wha": 2785,
      "crappy": 2786,
      "cats": 2787,
      "appro": 2788,
      "gal": 2789,
      ".?": 2790,
      "showing": 2791,
      "studio": 2792,
      "energy": 2793,
      "butter": 2794,
      "max": 2795,
      "cookies": 2796,
      "twice": 2797,
      "aha": 2798,
      "lov": 2799,
      "?!?": 2800,
      "added": 2801,
      "tough": 2802,
      "stage": 2803,
      "poin": 2804,
      "price": 2805,
      "cooking": 2806,
      "tive": 2807,
      "sushi": 2808,
      "science": 2809,
      "entertain": 2810,
      "opp": 2811,
      "fault": 2812,
      "ference": 2813,
      "ged": 2814,
      "brought": 2815,
      "wards": 2816,
      "charac": 2817,
      "file": 2818,
      "ku": 2819,
      "wii": 2820,
      "bang": 2821,
      "noooo": 2822,
      "empty": 2823,
      "wrote": 2824,
      "productive": 2825,
      "stayed": 2826,
      "strange": 2827,
      "wanting": 2828,
      "talked": 2829,
      "roy": 2830,
      "messages": 2831,
      "gunna": 2832,
      "slight": 2833,
      "anti": 2834,
      "excell": 2835,
      "cab": 2836,
      "imagine": 2837,
      "straw": 2838,
      "travel": 2839,
      "america": 2840,
      "origin": 2841,
      "bble": 2842,
      "psy": 2843,
      "ator": 2844,
      "direct": 2845,
      "mul": 2846,
      "bert": 2847,
      "dden": 2848,
      "north": 2849,
      "million": 2850,
      "england": 2851,
      "cudd": 2852,
      "follower": 2853,
      "library": 2854,
      "gur": 2855,
      "zer": 2856,
      "recent": 2857,
      "ida": 2858,
      "tions": 2859,
      "hehehe": 2860,
      "pper": 2861,
      "diet": 2862,
      "simple": 2863,
      "21": 2864,
      "scri": 2865,
      "nc": 2866,
      "switch": 2867,
      "turning": 2868,
      "ible": 2869,
      "sometime": 2870,
      "report": 2871,
      "velo": 2872,
      "local": 2873,
      "tran": 2874,
      "fave": 2875,
      "excellent": 2876,
      "ply": 2877,
      "tempt": 2878,
      "media": 2879,
      "japan": 2880,
      "kitch": 2881,
      "twitters": 2882,
      "six": 2883,
      "22": 2884,
      "vet": 2885,
      "fort": 2886,
      "finale": 2887,
      "woohoo": 2888,
      "dumb": 2889,
      "athon": 2890,
      "sweetie": 2891,
      "piece": 2892,
      "gift": 2893,
      "session": 2894,
      "ai": 2895,
      "butt": 2896,
      "drinks": 2897,
      "noticed": 2898,
      "organ": 2899,
      "corn": 2900,
      "lee": 2901,
      "ities": 2902,
      "sie": 2903,
      "ived": 2904,
      "tweeted": 2905,
      "paris": 2906,
      "adorable": 2907,
      "alive": 2908,
      "cance": 2909,
      "zzy": 2910,
      "flor": 2911,
      "vor": 2912,
      "couch": 2913,
      "mare": 2914,
      "idi": 2915,
      "nails": 2916,
      "release": 2917,
      "phew": 2918,
      "tmr": 2919,
      "thn": 2920,
      "moms": 2921,
      "tears": 2922,
      "ordered": 2923,
      "sel": 2924,
      "system": 2925,
      "liter": 2926,
      "bread": 2927,
      "women": 2928,
      "eeeee": 2929,
      "brilli": 2930,
      "battery": 2931,
      "boat": 2932,
      "tons": 2933,
      "kitchen": 2934,
      "ith": 2935,
      "suff": 2936,
      "soup": 2937,
      "picked": 2938,
      "crow": 2939,
      "swear": 2940,
      "exp": 2941,
      "everywhere": 2942,
      "diffic": 2943,
      "obvious": 2944,
      "grandma": 2945,
      "fle": 2946,
      "prep": 2947,
      "aster": 2948,
      "machine": 2949,
      "dammit": 2950,
      "soc": 2951,
      "rol": 2952,
      "harry": 2953,
      "matt": 2954,
      "fabulous": 2955,
      "haps": 2956,
      "canada": 2957,
      "ohhh": 2958,
      "itting": 2959,
      "stair": 2960,
      "ppin": 2961,
      "gah": 2962,
      "ased": 2963,
      "holly": 2964,
      "kept": 2965,
      "jim": 2966,
      "loy": 2967,
      "fran": 2968,
      "smart": 2969,
      "invite": 2970,
      "aking": 2971,
      "catching": 2972,
      "lord": 2973,
      "lts": 2974,
      "delay": 2975,
      "geor": 2976,
      "expect": 2977,
      "goodness": 2978,
      "drama": 2979,
      "soul": 2980,
      "e3": 2981,
      "brown": 2982,
      "ryan": 2983,
      "swim": 2984,
      "cin": 2985,
      "total": 2986,
      "phys": 2987,
      "brilliant": 2988,
      "heh": 2989,
      "unders": 2990,
      "speed": 2991,
      "flying": 2992,
      "children": 2993,
      "barely": 2994,
      "tenn": 2995,
      "ial": 2996,
      "promo": 2997,
      "washing": 2998,
      "sir": 2999,
      "reli": 3000,
      "weekends": 3001,
      "ret": 3002,
      "ric": 3003,
      "sig": 3004,
      "laughing": 3005,
      "deep": 3006,
      "perhaps": 3007,
      "craving": 3008,
      "turns": 3009,
      "ctic": 3010,
      "rap": 3011,
      "lou": 3012,
      "sudden": 3013,
      "lmfa": 3014,
      "eff": 3015,
      "custom": 3016,
      "micha": 3017,
      "chines": 3018,
      "coast": 3019,
      "rained": 3020,
      "grrr": 3021,
      "micro": 3022,
      "europe": 3023,
      "toast": 3024,
      "hurting": 3025,
      "commun": 3026,
      "deserve": 3027,
      "neighbor": 3028,
      "schedule": 3029,
      "given": 3030,
      "pit": 3031,
      "surprise": 3032,
      ".)": 3033,
      "pon": 3034,
      "imma": 3035,
      "size": 3036,
      "gery": 3037,
      "ugly": 3038,
      "national": 3039,
      "holidays": 3040,
      "mt": 3041,
      "ders": 3042,
      "ggy": 3043,
      "treat": 3044,
      "nnnn": 3045,
      "evil": 3046,
      "incred": 3047,
      "terri": 3048,
      "gers": 3049,
      "chinese": 3050,
      "gent": 3051,
      "stream": 3052,
      "scream": 3053,
      "letting": 3054,
      "uuu": 3055,
      "public": 3056,
      "winter": 3057,
      "golf": 3058,
      "nooo": 3059,
      "ram": 3060,
      "hole": 3061,
      "muse": 3062,
      "click": 3063,
      "sharing": 3064,
      "chuck": 3065,
      "marathon": 3066,
      "access": 3067,
      "flash": 3068,
      "inspir": 3069,
      "qual": 3070,
      "babys": 3071,
      "lesson": 3072,
      "issue": 3073,
      "bgt": 3074,
      "quote": 3075,
      "easier": 3076,
      "mission": 3077,
      "comments": 3078,
      "pleasure": 3079,
      "expected": 3080,
      "east": 3081,
      "lis": 3082,
      "rout": 3083,
      "sever": 3084,
      "daily": 3085,
      "perfor": 3086,
      "steph": 3087,
      "request": 3088,
      "develo": 3089,
      "stairs": 3090,
      "),": 3091,
      "queen": 3092,
      "spl": 3093,
      "quo": 3094,
      "somehow": 3095,
      "cere": 3096,
      "ival": 3097,
      "ese": 3098,
      "annoyed": 3099,
      "pres": 3100,
      "teacher": 3101,
      "jess": 3102,
      "pas": 3103,
      "suit": 3104,
      "signed": 3105,
      "figured": 3106,
      "whoo": 3107,
      "juice": 3108,
      "aga": 3109,
      "prefer": 3110,
      "married": 3111,
      "football": 3112,
      "nightmare": 3113,
      "anta": 3114,
      "texas": 3115,
      "wich": 3116,
      "fake": 3117,
      "shots": 3118,
      "atm": 3119,
      "planned": 3120,
      "realize": 3121,
      "nam": 3122,
      "ility": 3123,
      "soccer": 3124,
      "sugar": 3125,
      "aches": 3126,
      "dol": 3127,
      "apartment": 3128,
      "babies": 3129,
      "lives": 3130,
      "voted": 3131,
      "scratch": 3132,
      "michael": 3133,
      "places": 3134,
      "yi": 3135,
      "mist": 3136,
      "surgery": 3137,
      "ggg": 3138,
      "clock": 3139,
      "james": 3140,
      "festival": 3141,
      "addicted": 3142,
      "user": 3143,
      "ughh": 3144,
      "spanish": 3145,
      "cir": 3146,
      "dev": 3147,
      "anytime": 3148,
      "4th": 3149,
      "crush": 3150,
      "ore": 3151,
      "mista": 3152,
      "toes": 3153,
      "hol": 3154,
      "helps": 3155,
      "jump": 3156,
      "wings": 3157,
      "graphy": 3158,
      "healthy": 3159,
      "fur": 3160,
      "hop": 3161,
      "famous": 3162,
      "elect": 3163,
      "meal": 3164,
      "server": 3165,
      "dj": 3166,
      "choo": 3167,
      "wave": 3168,
      "sisters": 3169,
      "sting": 3170,
      "setting": 3171,
      "sniff": 3172,
      "dent": 3173,
      "ung": 3174,
      "lookin": 3175,
      "transform": 3176,
      "results": 3177,
      "wild": 3178,
      "ites": 3179,
      "spa": 3180,
      "possibly": 3181,
      "fru": 3182,
      "extremely": 3183,
      "iran": 3184,
      "boston": 3185,
      "iii": 3186,
      "shining": 3187,
      "workin": 3188,
      "tear": 3189,
      "across": 3190,
      "ahaha": 3191,
      "kim": 3192,
      "florida": 3193,
      "messed": 3194,
      "mike": 3195,
      "angry": 3196,
      "weak": 3197,
      "champ": 3198,
      "hous": 3199,
      "odd": 3200,
      "complain": 3201,
      "cheap": 3202,
      "mee": 3203,
      "offer": 3204,
      "gives": 3205,
      "orange": 3206,
      "degrees": 3207,
      "sele": 3208,
      "interested": 3209,
      "multi": 3210,
      "ient": 3211,
      "ety": 3212,
      "tim": 3213,
      "known": 3214,
      "fuckin": 3215,
      "difficult": 3216,
      "managed": 3217,
      "worries": 3218,
      "revising": 3219,
      "girlfriend": 3220,
      "reality": 3221,
      "2morrow": 3222,
      "rubb": 3223,
      "tattoo": 3224,
      "ery": 3225,
      "heck": 3226,
      "ished": 3227,
      "mary": 3228,
      "memories": 3229,
      "tree": 3230,
      "ural": 3231,
      "uses": 3232,
      "agre": 3233,
      "lights": 3234,
      "finishing": 3235,
      "sarah": 3236,
      "hows": 3237,
      "mount": 3238,
      "140": 3239,
      "scar": 3240,
      "shoo": 3241,
      "connection": 3242,
      "sites": 3243,
      "nal": 3244,
      "ups": 3245,
      "grey": 3246,
      "70": 3247,
      "chester": 3248,
      "txt": 3249,
      "auto": 3250,
      "lying": 3251,
      "contest": 3252,
      "appear": 3253,
      "ruined": 3254,
      "youre": 3255,
      "posting": 3256,
      "pix": 3257,
      "3d": 3258,
      "cine": 3259,
      "notice": 3260,
      "quit": 3261,
      "waste": 3262,
      "truly": 3263,
      "wide": 3264,
      "del": 3265,
      "blocked": 3266,
      "30am": 3267,
      "ridic": 3268,
      "squarespace": 3269,
      "syd": 3270,
      "cable": 3271,
      "dut": 3272,
      "kevin": 3273,
      "mondays": 3274,
      "lived": 3275,
      "obs": 3276,
      "las": 3277,
      "shitty": 3278,
      "paint": 3279,
      "deta": 3280,
      "gross": 3281,
      "questions": 3282,
      "sides": 3283,
      "nasty": 3284,
      "hearing": 3285,
      "vision": 3286,
      "painting": 3287,
      "ino": 3288,
      "centr": 3289,
      "chap": 3290,
      "cards": 3291,
      "pour": 3292,
      "rise": 3293,
      "zoo": 3294,
      "dist": 3295,
      "tiny": 3296,
      "weren": 3297,
      "venture": 3298,
      "laure": 3299,
      "advice": 3300,
      "dele": 3301,
      "mostly": 3302,
      "rice": 3303,
      "sport": 3304,
      "26": 3305,
      "fucked": 3306,
      "blame": 3307,
      "lmfao": 3308,
      "rich": 3309,
      "ump": 3310,
      "500": 3311,
      "yrs": 3312,
      "loc": 3313,
      "heavy": 3314,
      "stone": 3315,
      "grr": 3316,
      "salad": 3317,
      "awhile": 3318,
      "termin": 3319,
      "dru": 3320,
      "chilling": 3321,
      "99": 3322,
      "bie": 3323,
      "walked": 3324,
      "ount": 3325,
      "ution": 3326,
      "smh": 3327,
      "lled": 3328,
      "motiv": 3329,
      "blessed": 3330,
      "trending": 3331,
      "aur": 3332,
      "cro": 3333,
      "latest": 3334,
      "massive": 3335,
      "atten": 3336,
      "manage": 3337,
      "smoo": 3338,
      "macbook": 3339,
      "leaves": 3340,
      "rite": 3341,
      "rious": 3342,
      "coll": 3343,
      "learned": 3344,
      "uncle": 3345,
      "shee": 3346,
      "decide": 3347,
      "cash": 3348,
      "compet": 3349,
      "launch": 3350,
      "oood": 3351,
      "dave": 3352,
      "anni": 3353,
      "control": 3354,
      "dition": 3355,
      "abt": 3356,
      "accept": 3357,
      "joined": 3358,
      "dish": 3359,
      "lam": 3360,
      "urgh": 3361,
      "conan": 3362,
      "biggest": 3363,
      "decis": 3364,
      "beginning": 3365,
      "bin": 3366,
      "twitpic": 3367,
      "otherwise": 3368,
      "pulled": 3369,
      "noo": 3370,
      "issa": 3371,
      "crossed": 3372,
      "avo": 3373,
      "prepar": 3374,
      "celebrate": 3375,
      "building": 3376,
      "rah": 3377,
      "bust": 3378,
      "sion": 3379,
      "ching": 3380,
      "tight": 3381,
      "oper": 3382,
      "ises": 3383,
      "arms": 3384,
      "regu": 3385,
      "credit": 3386,
      "zen": 3387,
      "links": 3388,
      "episodes": 3389,
      "reminds": 3390,
      "announ": 3391,
      "itor": 3392,
      "rush": 3393,
      "convers": 3394,
      "status": 3395,
      "aim": 3396,
      "letter": 3397,
      "error": 3398,
      "anybody": 3399,
      "brad": 3400,
      "cousins": 3401,
      "dor": 3402,
      "explain": 3403,
      "sour": 3404,
      "ury": 3405,
      "trave": 3406,
      "updating": 3407,
      "level": 3408,
      "conference": 3409,
      "geo": 3410,
      "gaz": 3411,
      "performan": 3412,
      "goodmorning": 3413,
      "balls": 3414,
      "fathers": 3415,
      "wen": 3416,
      "califor": 3417,
      "attention": 3418,
      "center": 3419,
      "diversity": 3420,
      "heaven": 3421,
      "gger": 3422,
      "drag": 3423,
      "guil": 3424,
      "stars": 3425,
      "literally": 3426,
      "sau": 3427,
      "praying": 3428,
      "rup": 3429,
      "fellow": 3430,
      "painful": 3431,
      "baseball": 3432,
      "dirty": 3433,
      "obviously": 3434,
      "client": 3435,
      "tht": 3436,
      "slightly": 3437,
      "gif": 3438,
      "mile": 3439,
      "jesus": 3440,
      "kris": 3441,
      "arr": 3442,
      "commer": 3443,
      "wah": 3444,
      "sports": 3445,
      "process": 3446,
      "packed": 3447,
      "hall": 3448,
      "tis": 3449,
      "fear": 3450,
      "closer": 3451,
      "ridiculous": 3452,
      "delet": 3453,
      "knowing": 3454,
      "pages": 3455,
      "spi": 3456,
      "susan": 3457,
      "human": 3458,
      "ew": 3459,
      "ugg": 3460,
      "reco": 3461,
      "moro": 3462,
      "distra": 3463,
      "born": 3464,
      "emails": 3465,
      "3333": 3466,
      "correct": 3467,
      "pig": 3468,
      "exist": 3469,
      "senior": 3470,
      "repe": 3471,
      "action": 3472,
      "ddd": 3473,
      "mates": 3474,
      "apps": 3475,
      "fash": 3476,
      "everytime": 3477,
      "rage": 3478,
      "german": 3479,
      "rome": 3480,
      "alarm": 3481,
      "acting": 3482,
      "23": 3483,
      "flowers": 3484,
      "ik": 3485,
      "hhhhhhhh": 3486,
      "montana": 3487,
      "asap": 3488,
      "hella": 3489,
      "surv": 3490,
      "usa": 3491,
      "rub": 3492,
      "aaay": 3493,
      "booo": 3494,
      "jan": 3495,
      "tes": 3496,
      "truck": 3497,
      "research": 3498,
      "ari": 3499,
      "upgrade": 3500,
      "older": 3501,
      "topic": 3502,
      "gain": 3503,
      "josh": 3504,
      "birds": 3505,
      "transformers": 3506,
      "ita": 3507,
      "lovin": 3508,
      "whee": 3509,
      "fashion": 3510,
      "chair": 3511,
      "tm": 3512,
      "tix": 3513,
      "desper": 3514,
      "iam": 3515,
      "bers": 3516,
      "pun": 3517,
      "regre": 3518,
      "ski": 3519,
      "handle": 3520,
      "quality": 3521,
      "mur": 3522,
      "tip": 3523,
      "bob": 3524,
      "confir": 3525,
      "miser": 3526,
      "ory": 3527,
      "2nite": 3528,
      "meh": 3529,
      "keys": 3530,
      "core": 3531,
      "ears": 3532,
      "opening": 3533,
      "aunt": 3534,
      "original": 3535,
      "tos": 3536,
      "wars": 3537,
      "california": 3538,
      "lv": 3539,
      "hopes": 3540,
      "mos": 3541,
      "iest": 3542,
      "hurry": 3543,
      "challen": 3544,
      "stressed": 3545,
      "deleted": 3546,
      "soooooo": 3547,
      "ime": 3548,
      "phili": 3549,
      "tennis": 3550,
      "thankyou": 3551,
      "rof": 3552,
      "alco": 3553,
      "freezing": 3554,
      "contact": 3555,
      "pound": 3556,
      "broad": 3557,
      "draw": 3558,
      "third": 3559,
      "kicked": 3560,
      "hid": 3561,
      "wire": 3562,
      "dem": 3563,
      "idiot": 3564,
      "softw": 3565,
      "igno": 3566,
      "sydney": 3567,
      "soci": 3568,
      "feature": 3569,
      "flick": 3570,
      "male": 3571,
      "cape": 3572,
      "surprised": 3573,
      "ckey": 3574,
      "restaur": 3575,
      "quickly": 3576,
      "bask": 3577,
      "sux": 3578,
      "fighting": 3579,
      "ji": 3580,
      "liking": 3581,
      "network": 3582,
      "grocer": 3583,
      "software": 3584,
      "ghost": 3585,
      "regi": 3586,
      "eaten": 3587,
      "neither": 3588,
      "jobs": 3589,
      "bron": 3590,
      "jet": 3591,
      "rot": 3592,
      "crashed": 3593,
      "swo": 3594,
      "ware": 3595,
      "erc": 3596,
      "counting": 3597,
      "ism": 3598,
      "artist": 3599,
      "amaz": 3600,
      "prayers": 3601,
      "candy": 3602,
      "400": 3603,
      "sne": 3604,
      "adv": 3605,
      "recently": 3606,
      "bacon": 3607,
      "aus": 3608,
      "thor": 3609,
      "perform": 3610,
      "posts": 3611,
      "ashley": 3612,
      "angels": 3613,
      ";,": 3614,
      "admit": 3615,
      "cancer": 3616,
      "hd": 3617,
      "term": 3618,
      "likely": 3619,
      "versary": 3620,
      "goss": 3621,
      "ala": 3622,
      "priv": 3623,
      "avoid": 3624,
      "lling": 3625,
      "nom": 3626,
      "fection": 3627,
      "ums": 3628,
      "haircut": 3629,
      "testing": 3630,
      "regular": 3631,
      "spid": 3632,
      "stock": 3633,
      "paul": 3634,
      "invited": 3635,
      "lauren": 3636,
      "spin": 3637,
      "truth": 3638,
      "bli": 3639,
      "greet": 3640,
      "ads": 3641,
      "impro": 3642,
      "thunders": 3643,
      "plant": 3644,
      "respond": 3645,
      "27": 3646,
      "adventure": 3647,
      "heads": 3648,
      "hahahah": 3649,
      "fc": 3650,
      "uation": 3651,
      "ense": 3652,
      "option": 3653,
      "ffin": 3654,
      "pill": 3655,
      "toy": 3656,
      "river": 3657,
      "hardly": 3658,
      "print": 3659,
      "spec": 3660,
      "burger": 3661,
      "presentation": 3662,
      "decent": 3663,
      "sucked": 3664,
      "ankle": 3665,
      "slowly": 3666,
      "points": 3667,
      "tony": 3668,
      "?)": 3669,
      "gb": 3670,
      "riding": 3671,
      "chips": 3672,
      "kitten": 3673,
      "filled": 3674,
      "llo": 3675,
      "performance": 3676,
      "stic": 3677,
      "angel": 3678,
      "umm": 3679,
      "toe": 3680,
      "visiting": 3681,
      "insane": 3682,
      "names": 3683,
      "wooo": 3684,
      "doors": 3685,
      "properly": 3686,
      "cloudy": 3687,
      "pies": 3688,
      "ttt": 3689,
      "aaaaa": 3690,
      "memory": 3691,
      "excuse": 3692,
      "tele": 3693,
      "bugs": 3694,
      "lando": 3695,
      "assignment": 3696,
      "aid": 3697,
      "uts": 3698,
      "idol": 3699,
      "bah": 3700,
      "premi": 3701,
      "gling": 3702,
      "eeeeee": 3703,
      "downloading": 3704,
      "colour": 3705,
      "havin": 3706,
      "downtown": 3707,
      "realised": 3708,
      "uploading": 3709,
      "nuts": 3710,
      "thy": 3711,
      "chas": 3712,
      "stories": 3713,
      "fied": 3714,
      "scot": 3715,
      "employ": 3716,
      "attack": 3717,
      "lemon": 3718,
      "beta": 3719,
      "tail": 3720,
      "score": 3721,
      "doo": 3722,
      "yer": 3723,
      "invol": 3724,
      "missin": 3725,
      "smoke": 3726,
      "impressed": 3727,
      "allergies": 3728,
      "mountain": 3729,
      "thunderstor": 3730,
      "lock": 3731,
      "nies": 3732,
      "bomb": 3733,
      "remembered": 3734,
      "honestly": 3735,
      "3g": 3736,
      "picking": 3737,
      "sla": 3738,
      "nes": 3739,
      "oce": 3740,
      "paying": 3741,
      "choose": 3742,
      "dressed": 3743,
      "shirts": 3744,
      "britney": 3745,
      "texting": 3746,
      "attend": 3747,
      "ax": 3748,
      "winning": 3749,
      "replies": 3750,
      "vert": 3751,
      "ably": 3752,
      "standing": 3753,
      "ark": 3754,
      "los": 3755,
      "scene": 3756,
      "yeh": 3757,
      "anniversary": 3758,
      "potter": 3759,
      "donal": 3760,
      "exerc": 3761,
      "tests": 3762,
      "basket": 3763,
      "abo": 3764,
      "huhu": 3765,
      "rick": 3766,
      "glas": 3767,
      "clue": 3768,
      "awh": 3769,
      "gie": 3770,
      "cavs": 3771,
      "rubbish": 3772,
      "nk": 3773,
      "sf": 3774,
      "wl": 3775,
      "youu": 3776,
      "charge": 3777,
      "recording": 3778,
      "miami": 3779,
      "reach": 3780,
      "model": 3781,
      "fruit": 3782,
      "recover": 3783,
      "orlando": 3784,
      "tryin": 3785,
      "details": 3786,
      "discus": 3787,
      "blank": 3788,
      "screwed": 3789,
      "natural": 3790,
      "museum": 3791,
      "preparing": 3792,
      "battle": 3793,
      "avat": 3794,
      "helped": 3795,
      "ges": 3796,
      "rit": 3797,
      "aly": 3798,
      "summ": 3799,
      "sandwich": 3800,
      "eggs": 3801,
      "insom": 3802,
      "gr8": 3803,
      "growing": 3804,
      "''": 3805,
      "locked": 3806,
      "signing": 3807,
      "doc": 3808,
      "cars": 3809,
      "illa": 3810,
      "whenever": 3811,
      "hs": 3812,
      "ific": 3813,
      "bigger": 3814,
      "5am": 3815,
      "ebay": 3816,
      "hw": 3817,
      "ert": 3818,
      "grab": 3819,
      "ras": 3820,
      "lif": 3821,
      "bedtime": 3822,
      "cia": 3823,
      "steal": 3824,
      "purple": 3825,
      "smooth": 3826,
      "nur": 3827,
      "beg": 3828,
      "notes": 3829,
      "perio": 3830,
      "certainly": 3831,
      "tb": 3832,
      "stoked": 3833,
      "shake": 3834,
      "whe": 3835,
      "tire": 3836,
      "faster": 3837,
      "ggie": 3838,
      "agreed": 3839,
      "inspiration": 3840,
      "rehear": 3841,
      "refresh": 3842,
      "ughhh": 3843,
      "mir": 3844,
      "cock": 3845,
      "continue": 3846,
      "philipp": 3847,
      "smiling": 3848,
      "peter": 3849,
      "amy": 3850,
      "ening": 3851,
      "saved": 3852,
      "dall": 3853,
      "foo": 3854,
      "hen": 3855,
      "guest": 3856,
      "classic": 3857,
      "woop": 3858,
      "leno": 3859,
      "frank": 3860,
      "krist": 3861,
      "wok": 3862,
      "jeans": 3863,
      "clip": 3864,
      "seconds": 3865,
      "revise": 3866,
      "received": 3867,
      "sweat": 3868,
      "lau": 3869,
      "magaz": 3870,
      "mmmmm": 3871,
      "bite": 3872,
      "belly": 3873,
      "spect": 3874,
      "gd": 3875,
      "coke": 3876,
      "nephew": 3877,
      "whoa": 3878,
      "crew": 3879,
      "wifi": 3880,
      "tips": 3881,
      "spread": 3882,
      "experi": 3883,
      "smells": 3884,
      "langu": 3885,
      "suggestions": 3886,
      "jason": 3887,
      "replace": 3888,
      "dos": 3889,
      "wisdom": 3890,
      "nan": 3891,
      "restaurant": 3892,
      "5th": 3893,
      "besides": 3894,
      "speaking": 3895,
      "embar": 3896,
      "court": 3897,
      "meat": 3898,
      "creative": 3899,
      "italy": 3900,
      "esp": 3901,
      "1000": 3902,
      "lem": 3903,
      "doctors": 3904,
      "miserable": 3905,
      "tooo": 3906,
      "theme": 3907,
      "steve": 3908,
      "boom": 3909,
      "boooo": 3910,
      "member": 3911,
      "gf": 3912,
      "rose": 3913,
      "spee": 3914,
      "address": 3915,
      "ek": 3916,
      "qua": 3917,
      "aka": 3918,
      "dallas": 3919,
      "editing": 3920,
      "sundays": 3921,
      "28": 3922,
      "loser": 3923,
      "demon": 3924,
      "prote": 3925,
      "bis": 3926,
      "retweet": 3927,
      "seattle": 3928,
      "terminator": 3929,
      "hitting": 3930,
      "tmrw": 3931,
      "guilty": 3932,
      "gossip": 3933,
      "itali": 3934,
      "chatting": 3935,
      "selves": 3936,
      "eli": 3937,
      "amount": 3938,
      "geek": 3939,
      "sters": 3940,
      "tics": 3941,
      "princess": 3942,
      "horse": 3943,
      "cafe": 3944,
      "yuck": 3945,
      "6am": 3946,
      "shu": 3947,
      "cyrus": 3948,
      "lll": 3949,
      "wicked": 3950,
      "gress": 3951,
      "camping": 3952,
      "teen": 3953,
      "chemist": 3954,
      "student": 3955,
      "pancakes": 3956,
      "bottom": 3957,
      "explo": 3958,
      "bubble": 3959,
      "grass": 3960,
      "palm": 3961,
      ",.": 3962,
      "29": 3963,
      "goood": 3964,
      "swift": 3965,
      "lid": 3966,
      "lyn": 3967,
      "corner": 3968,
      "pier": 3969,
      "bathroom": 3970,
      "noooooooo": 3971,
      "reck": 3972,
      "soph": 3973,
      "focus": 3974,
      "activ": 3975,
      "cycle": 3976,
      "changing": 3977,
      "bam": 3978,
      "strawberry": 3979,
      "alcohol": 3980,
      "antly": 3981,
      "saving": 3982,
      "blow": 3983,
      "released": 3984,
      "heyy": 3985,
      "fg": 3986,
      "fool": 3987,
      "ners": 3988,
      "atleast": 3989,
      "wouldnt": 3990,
      "burned": 3991,
      "tweeters": 3992,
      "hip": 3993,
      "screw": 3994,
      "asy": 3995,
      "sight": 3996,
      "aaah": 3997,
      "data": 3998,
      "looo": 3999,
      "mex": 4000,
      "voting": 4001,
      "emi": 4002,
      "justin": 4003,
      "keyboard": 4004,
      "35": 4005,
      "caf": 4006,
      "boot": 4007,
      "metro": 4008,
      "aching": 4009,
      "mah": 4010,
      "curious": 4011,
      "jeff": 4012,
      "toronto": 4013,
      "fancy": 4014,
      "snee": 4015,
      "kkkk": 4016,
      "philippines": 4017,
      "inting": 4018,
      "fac": 4019,
      "techno": 4020,
      "consider": 4021,
      "nove": 4022,
      "ara": 4023,
      "arts": 4024,
      "spain": 4025,
      "breath": 4026,
      "izon": 4027,
      "yellow": 4028,
      "intro": 4029,
      "nood": 4030,
      "comfor": 4031,
      "harder": 4032,
      "kisses": 4033,
      "ocean": 4034,
      "mble": 4035,
      "sep": 4036,
      "dads": 4037,
      "cramp": 4038,
      "george": 4039,
      "avatar": 4040,
      "gam": 4041,
      "ees": 4042,
      "award": 4043,
      "bourne": 4044,
      "named": 4045,
      "rie": 4046,
      "parade": 4047,
      "bunny": 4048,
      "continu": 4049,
      "ix": 4050,
      "nad": 4051,
      "cookie": 4052,
      "skype": 4053,
      "300": 4054,
      "lab": 4055,
      "rude": 4056,
      "medic": 4057,
      "result": 4058,
      "jersey": 4059,
      "bk": 4060,
      "mrs": 4061,
      "ffff": 4062,
      "blink": 4063,
      "threw": 4064,
      "eral": 4065,
      "poli": 4066,
      "considering": 4067,
      "regret": 4068,
      "ied": 4069,
      "nh": 4070,
      "migra": 4071,
      "situation": 4072,
      "boyle": 4073,
      "banana": 4074,
      "moo": 4075,
      "parties": 4076,
      "tab": 4077,
      "section": 4078,
      "within": 4079,
      "nty": 4080,
      "silver": 4081,
      "greate": 4082,
      "starving": 4083,
      "mam": 4084,
      "zo": 4085,
      "tered": 4086,
      "waii": 4087,
      "firefox": 4088,
      "basically": 4089,
      "sneak": 4090,
      "migraine": 4091,
      "nothin": 4092,
      "contra": 4093,
      "chase": 4094,
      "related": 4095,
      "reg": 4096,
      "plu": 4097,
      "gear": 4098,
      "vv": 4099,
      "convin": 4100,
      "gloo": 4101,
      "desp": 4102,
      "settle": 4103,
      "practic": 4104,
      "delete": 4105,
      "gaga": 4106,
      "attempt": 4107,
      "stole": 4108,
      "berries": 4109,
      "actual": 4110,
      "pens": 4111,
      "beauty": 4112,
      "massage": 4113,
      "cuddle": 4114,
      "rt": 4115,
      "nowhere": 4116,
      "wins": 4117,
      "runs": 4118,
      "tune": 4119,
      "360": 4120,
      "zone": 4121,
      "union": 4122,
      "faith": 4123,
      "zzz": 4124,
      "booked": 4125,
      "desig": 4126,
      "based": 4127,
      "hayfever": 4128,
      "clouds": 4129,
      "7am": 4130,
      "woooo": 4131,
      "asha": 4132,
      "moz": 4133,
      "spy": 4134,
      "happiness": 4135,
      "bands": 4136,
      "demo": 4137,
      "greatest": 4138,
      "punch": 4139,
      "danie": 4140,
      "darling": 4141,
      "appointment": 4142,
      "cale": 4143,
      "essed": 4144,
      "nnn": 4145,
      "climb": 4146,
      "several": 4147,
      "applic": 4148,
      "dit": 4149,
      "f1": 4150,
      "pure": 4151,
      "hai": 4152,
      "plenty": 4153,
      "econ": 4154,
      "goal": 4155,
      "cow": 4156,
      "bridge": 4157,
      "bowl": 4158,
      "emotion": 4159,
      "states": 4160,
      "pol": 4161,
      "bags": 4162,
      "const": 4163,
      "tommorow": 4164,
      "image": 4165,
      "force": 4166,
      "carry": 4167,
      "shaun": 4168,
      "difference": 4169,
      "deliver": 4170,
      "suddenly": 4171,
      "wasted": 4172,
      "scare": 4173,
      "glor": 4174,
      "muscle": 4175,
      "bound": 4176,
      "icy": 4177,
      "written": 4178,
      "nail": 4179,
      "ilt": 4180,
      "wolver": 4181,
      "patient": 4182,
      "mistake": 4183,
      "()": 4184,
      "rum": 4185,
      "rings": 4186,
      "grocery": 4187,
      "china": 4188,
      "ption": 4189,
      "tum": 4190,
      "bore": 4191,
      "pota": 4192,
      "period": 4193,
      "beyond": 4194,
      "private": 4195,
      "chemistry": 4196,
      "meds": 4197,
      "assu": 4198,
      "cot": 4199,
      "replied": 4200,
      "delayed": 4201,
      "whether": 4202,
      "4am": 4203,
      "cand": 4204,
      "wu": 4205,
      "ril": 4206,
      "imme": 4207,
      "taco": 4208,
      "thinkin": 4209,
      "appreciated": 4210,
      "limited": 4211,
      "conversation": 4212,
      "hide": 4213,
      "alas": 4214,
      "grrrrr": 4215,
      "jail": 4216,
      "burning": 4217,
      "content": 4218,
      "az": 4219,
      "dates": 4220,
      "pad": 4221,
      "ony": 4222,
      "sti": 4223,
      "feelings": 4224,
      "sym": 4225,
      "drove": 4226,
      "vamp": 4227,
      "talkin": 4228,
      "holding": 4229,
      "function": 4230,
      "indi": 4231,
      "loose": 4232,
      "character": 4233,
      "cole": 4234,
      "probs": 4235,
      "large": 4236,
      "woken": 4237,
      "lawn": 4238,
      "ius": 4239,
      "showed": 4240,
      "ux": 4241,
      "ggin": 4242,
      "ashed": 4243,
      "podcast": 4244,
      "downloaded": 4245,
      "swollen": 4246,
      "hating": 4247,
      "kelly": 4248,
      "someday": 4249,
      "cris": 4250,
      "freak": 4251,
      "searching": 4252,
      "thnx": 4253,
      "ices": 4254,
      "shorts": 4255,
      "yyyyyyyy": 4256,
      "mouse": 4257,
      "mcdonal": 4258,
      "yoga": 4259,
      "texts": 4260,
      "shooting": 4261,
      "glo": 4262,
      "whil": 4263,
      "lyri": 4264,
      "hadn": 4265,
      "brings": 4266,
      "makeup": 4267,
      "breathe": 4268,
      "dum": 4269,
      "theat": 4270,
      "chest": 4271,
      "shoulder": 4272,
      "connect": 4273,
      "xico": 4274,
      "wers": 4275,
      "bes": 4276,
      "cel": 4277,
      "tood": 4278,
      "infection": 4279,
      "ths": 4280,
      "youn": 4281,
      "bean": 4282,
      "pose": 4283,
      "aff": 4284,
      "vod": 4285,
      "katie": 4286,
      "zom": 4287,
      "bage": 4288,
      "ffle": 4289,
      "bestie": 4290,
      "rofl": 4291,
      "itself": 4292,
      "driver": 4293,
      "iiiiiiii": 4294,
      "pha": 4295,
      "pity": 4296,
      "tweep": 4297,
      "friendly": 4298,
      "tweetie": 4299,
      "bringing": 4300,
      "changes": 4301,
      "sauce": 4302,
      "tty": 4303,
      "norm": 4304,
      "hawaii": 4305,
      "express": 4306,
      "comin": 4307,
      "bleed": 4308,
      "killer": 4309,
      "celebrating": 4310,
      "selling": 4311,
      "general": 4312,
      "animal": 4313,
      "wc": 4314,
      "awsome": 4315,
      "relation": 4316,
      "pir": 4317,
      "ini": 4318,
      "ens": 4319,
      "ffy": 4320,
      "adding": 4321,
      "storms": 4322,
      "frustrated": 4323,
      "cinema": 4324,
      "tax": 4325,
      "tues": 4326,
      "cleaned": 4327,
      "insomnia": 4328,
      "3am": 4329,
      "lian": 4330,
      "parts": 4331,
      "vids": 4332,
      "itu": 4333,
      "installed": 4334,
      "closing": 4335,
      "charger": 4336,
      "marketing": 4337,
      "wolverine": 4338,
      "sales": 4339,
      "rains": 4340,
      "skool": 4341,
      "piano": 4342,
      "niece": 4343,
      "eric": 4344,
      "refer": 4345,
      "india": 4346,
      "rules": 4347,
      "eww": 4348,
      "tn": 4349,
      "tx": 4350,
      "opin": 4351,
      "yey": 4352,
      "jordan": 4353,
      "xxxxxxxx": 4354,
      "bowling": 4355,
      "creepy": 4356,
      "speech": 4357,
      "url": 4358,
      "impossible": 4359,
      "mia": 4360,
      "coun": 4361,
      "biz": 4362,
      "spider": 4363,
      ";?": 4364,
      "listened": 4365,
      "mornings": 4366,
      "mental": 4367,
      "picnic": 4368,
      "response": 4369,
      "uber": 4370,
      "create": 4371,
      "cupcakes": 4372,
      "grown": 4373,
      "cruise": 4374,
      "requi": 4375,
      "fried": 4376,
      "discovered": 4377,
      "castle": 4378,
      "pouring": 4379,
      "whilst": 4380,
      "blues": 4381,
      "liver": 4382,
      "pean": 4383,
      "poker": 4384,
      "progress": 4385,
      "ject": 4386,
      "drawing": 4387,
      ".,": 4388,
      "ences": 4389,
      "naked": 4390,
      "roof": 4391,
      "garage": 4392,
      "ireland": 4393,
      "characters": 4394,
      "dreading": 4395,
      "mexico": 4396,
      "haa": 4397,
      "aged": 4398,
      "sadness": 4399,
      "himself": 4400,
      "trad": 4401,
      "meaning": 4402,
      "spirit": 4403,
      "teh": 4404,
      "language": 4405,
      "bits": 4406,
      "cum": 4407,
      "tape": 4408,
      "momma": 4409,
      "humid": 4410,
      "japanese": 4411,
      "dick": 4412,
      "dents": 4413,
      "quiz": 4414,
      "cricket": 4415,
      "suppor": 4416,
      "mie": 4417,
      "scott": 4418,
      "target": 4419,
      "suffering": 4420,
      "repeat": 4421,
      "era": 4422,
      "roast": 4423,
      "anger": 4424,
      "jimmy": 4425,
      "septe": 4426,
      "cnt": 4427,
      "erd": 4428,
      "apt": 4429,
      "swed": 4430,
      "active": 4431,
      "hungover": 4432,
      "incredible": 4433,
      "js": 4434,
      "vio": 4435,
      "blon": 4436,
      "graduate": 4437,
      "mentioned": 4438,
      "including": 4439,
      "reall": 4440,
      "adi": 4441,
      "drank": 4442,
      "frm": 4443,
      "exercise": 4444,
      "september": 4445,
      "miche": 4446,
      "cure": 4447,
      "kicking": 4448,
      "arrive": 4449,
      "compli": 4450,
      "chelsea": 4451,
      "dust": 4452,
      "errand": 4453,
      "accom": 4454,
      "noring": 4455,
      "clearly": 4456,
      "files": 4457,
      "basketball": 4458,
      "magazine": 4459,
      "holl": 4460,
      "parking": 4461,
      "lessons": 4462,
      "mbers": 4463,
      "babysitting": 4464,
      "spr": 4465,
      "pical": 4466,
      "lyrics": 4467,
      "pum": 4468,
      "ref": 4469,
      "seats": 4470,
      "freed": 4471,
      "inform": 4472,
      "accor": 4473,
      "virus": 4474,
      "virgin": 4475,
      "wid": 4476,
      "muffin": 4477,
      "papers": 4478,
      "simply": 4479,
      "canceled": 4480,
      "becoming": 4481,
      "liz": 4482,
      "motor": 4483,
      "awk": 4484,
      "omfg": 4485,
      "challenge": 4486,
      "cig": 4487,
      "vine": 4488,
      "sorted": 4489,
      "ague": 4490,
      "fold": 4491,
      "brunch": 4492,
      "aah": 4493,
      "topics": 4494,
      "twin": 4495,
      "grrrr": 4496,
      "brush": 4497,
      "kan": 4498,
      "bast": 4499,
      "prolly": 4500,
      "musical": 4501,
      "farm": 4502,
      "pleased": 4503,
      "obsessed": 4504,
      "easter": 4505,
      "wan": 4506,
      "cereal": 4507,
      "lang": 4508,
      "ros": 4509,
      "lolz": 4510,
      "cture": 4511,
      "rule": 4512,
      "decision": 4513,
      "2moro": 4514,
      "desktop": 4515,
      "title": 4516,
      "thri": 4517,
      "breaks": 4518,
      "britain": 4519,
      "toma": 4520,
      "rare": 4521,
      "vit": 4522,
      "respect": 4523,
      "houston": 4524,
      "mexican": 4525,
      "emily": 4526,
      "lk": 4527,
      "seb": 4528,
      "pocket": 4529,
      "ours": 4530,
      "parti": 4531,
      "farrah": 4532,
      "journey": 4533,
      "meee": 4534,
      "robert": 4535,
      "bak": 4536,
      "contacts": 4537,
      "dee": 4538,
      "pred": 4539,
      "aswell": 4540,
      "jacks": 4541,
      "flip": 4542,
      "bothered": 4543,
      "nas": 4544,
      "pppp": 4545,
      "duty": 4546,
      "ination": 4547,
      "kings": 4548,
      "projects": 4549,
      "yikes": 4550,
      "333": 4551,
      "popular": 4552,
      "inspi": 4553,
      "deb": 4554,
      "students": 4555,
      "disappo": 4556,
      "blind": 4557,
      "tops": 4558,
      "buzz": 4559,
      "pac": 4560,
      "damnit": 4561,
      "audio": 4562,
      "neighbour": 4563,
      "demons": 4564,
      "rate": 4565,
      "tomorow": 4566,
      "morn": 4567,
      "ooooooo": 4568,
      "rolling": 4569,
      "errands": 4570,
      "allen": 4571,
      "makin": 4572,
      "yawn": 4573,
      "community": 4574,
      "ora": 4575,
      "polit": 4576,
      "funeral": 4577,
      "msg": 4578,
      "bid": 4579,
      "condition": 4580,
      "nerd": 4581,
      "giant": 4582,
      "passing": 4583,
      "numbers": 4584,
      "monkey": 4585,
      "winner": 4586,
      "bury": 4587,
      "italian": 4588,
      "tro": 4589,
      "manchester": 4590,
      "april": 4591,
      "anele": 4592,
      "austin": 4593,
      "iranele": 4594,
      "sittin": 4595,
      "jacket": 4596,
      "bbc": 4597,
      "2010": 4598,
      "pride": 4599,
      "freedom": 4600,
      "vest": 4601,
      "meetings": 4602,
      "confusing": 4603,
      "virtu": 4604,
      "gud": 4605,
      "fridge": 4606,
      "oooooooooooooooo": 4607,
      "octo": 4608,
      "chapter": 4609,
      "3gs": 4610,
      "np": 4611,
      "neg": 4612,
      "usion": 4613,
      "chip": 4614,
      "similar": 4615,
      "comfortable": 4616,
      "8am": 4617,
      "fon": 4618,
      "sd": 4619,
      "nighty": 4620,
      "previous": 4621,
      "typing": 4622,
      "afri": 4623,
      "gic": 4624,
      "fuse": 4625,
      "cares": 4626,
      "ignore": 4627,
      "gang": 4628,
      "cutting": 4629,
      "despite": 4630,
      "ero": 4631,
      "advert": 4632,
      "jokes": 4633,
      "ps3": 4634,
      "reasons": 4635,
      "ssssssss": 4636,
      "44": 4637,
      "tast": 4638,
      "uploaded": 4639,
      "pillow": 4640,
      "wana": 4641,
      "ett": 4642,
      "preview": 4643,
      "common": 4644,
      "err": 4645,
      "gran": 4646,
      "grace": 4647,
      "cooked": 4648,
      "melbourne": 4649,
      "hollywood": 4650,
      "ummm": 4651,
      "philly": 4652,
      "lightning": 4653,
      "physics": 4654,
      "november": 4655,
      "outfit": 4656,
      "feat": 4657,
      "appren": 4658,
      "burgh": 4659,
      "throwing": 4660,
      "forum": 4661,
      "coughing": 4662,
      "register": 4663,
      "cip": 4664,
      "clar": 4665,
      "glorious": 4666,
      "lind": 4667,
      "zi": 4668,
      "hoor": 4669,
      "tors": 4670,
      "tempting": 4671,
      "thetic": 4672,
      "oof": 4673,
      "destroy": 4674,
      "iranelection": 4675,
      "6th": 4676,
      "nooooo": 4677,
      "grind": 4678,
      "amazon": 4679,
      "kas": 4680,
      "hockey": 4681,
      "monster": 4682,
      "opened": 4683,
      "begins": 4684,
      "feedback": 4685,
      "competition": 4686,
      "survive": 4687,
      "disappointing": 4688,
      "ack": 4689,
      "singapo": 4690,
      "careful": 4691,
      "forgotten": 4692,
      "hil": 4693,
      "steak": 4694,
      "easily": 4695,
      "accompl": 4696,
      "yeahh": 4697,
      "cloud": 4698,
      "according": 4699,
      "singapore": 4700,
      "stink": 4701,
      "surely": 4702,
      "woah": 4703,
      "bling": 4704,
      "torn": 4705,
      "hunting": 4706,
      "bbing": 4707,
      "planet": 4708,
      "brian": 4709,
      "desperate": 4710,
      "aks": 4711,
      "oil": 4712,
      "irl": 4713,
      "events": 4714,
      "heels": 4715,
      "apprentice": 4716,
      "tam": 4717,
      "bella": 4718,
      "longest": 4719,
      "dawn": 4720,
      "junk": 4721,
      "dough": 4722,
      "knight": 4723,
      "seven": 4724,
      "comic": 4725,
      "pasta": 4726,
      "dais": 4727,
      "talented": 4728,
      "script": 4729,
      "bills": 4730,
      "plays": 4731,
      "placed": 4732,
      "british": 4733,
      "resist": 4734,
      "bec": 4735,
      "tool": 4736,
      "iff": 4737,
      "singer": 4738,
      "equ": 4739,
      "pim": 4740,
      "effect": 4741,
      ";!": 4742,
      "aar": 4743,
      "sunburnt": 4744,
      "atlanta": 4745,
      "flickr": 4746,
      "normally": 4747,
      "vation": 4748,
      "noise": 4749,
      "quar": 4750,
      "95": 4751,
      "herself": 4752,
      "crast": 4753,
      "shock": 4754,
      "hmmmm": 4755,
      "cutest": 4756,
      "allergic": 4757,
      "commercial": 4758,
      "jee": 4759,
      "lover": 4760,
      "pos": 4761,
      "fries": 4762,
      "playin": 4763,
      "borrow": 4764,
      "ential": 4765,
      "gm": 4766,
      "edge": 4767,
      "chef": 4768,
      "skills": 4769,
      "prince": 4770,
      "unt": 4771,
      "dod": 4772,
      "bris": 4773,
      "lands": 4774,
      "engine": 4775,
      "microsoft": 4776,
      "bass": 4777,
      "ox": 4778,
      "beth": 4779,
      "lim": 4780,
      "procrast": 4781,
      "grum": 4782,
      "wonders": 4783,
      "bleh": 4784,
      "ortun": 4785,
      "lence": 4786,
      "ht": 4787,
      "comfy": 4788,
      "cara": 4789,
      "logi": 4790,
      "faces": 4791,
      "parano": 4792,
      "central": 4793,
      "shoe": 4794,
      "peanut": 4795,
      "inspired": 4796,
      "gate": 4797,
      "sry": 4798,
      "charlie": 4799,
      "subscri": 4800,
      "appeared": 4801,
      "gloomy": 4802,
      "billy": 4803,
      "hv": 4804,
      "wrist": 4805,
      "twitterverse": 4806,
      "pau": 4807,
      "genius": 4808,
      "pointed": 4809,
      "golden": 4810,
      "october": 4811,
      "agh": 4812,
      "andrew": 4813,
      "edit": 4814,
      "whis": 4815,
      "shat": 4816,
      "photograph": 4817,
      "expecting": 4818,
      "opportun": 4819,
      "wra": 4820,
      "staff": 4821,
      "alley": 4822,
      "grate": 4823,
      "boots": 4824,
      "yyyyy": 4825,
      "dishes": 4826,
      "ahah": 4827,
      "hic": 4828,
      "ize": 4829,
      "aye": 4830,
      "wolf": 4831,
      "tanning": 4832,
      "degree": 4833,
      "announce": 4834,
      "2am": 4835,
      "zes": 4836,
      "thus": 4837,
      "secur": 4838,
      "pear": 4839,
      "highly": 4840,
      "universe": 4841,
      "softball": 4842,
      "sang": 4843,
      "resc": 4844,
      "seemed": 4845,
      "consu": 4846,
      "partic": 4847,
      "moments": 4848,
      "transl": 4849,
      "selena": 4850,
      "rat": 4851,
      "baking": 4852,
      "ently": 4853,
      "knock": 4854,
      "lvatt": 4855,
      "scotland": 4856,
      "ors": 4857,
      "cancel": 4858,
      "8th": 4859,
      "tend": 4860,
      "yee": 4861,
      "edward": 4862,
      "docu": 4863,
      "presen": 4864,
      "stack": 4865,
      "teaching": 4866,
      "yahoo": 4867,
      "thir": 4868,
      "iced": 4869,
      "bedroom": 4870,
      "itchy": 4871,
      "screaming": 4872,
      "thom": 4873,
      "fridays": 4874,
      "bros": 4875,
      "layout": 4876,
      "brace": 4877,
      "pressure": 4878,
      "ibly": 4879,
      "pus": 4880,
      "snap": 4881,
      "rec": 4882,
      "tongue": 4883,
      "satis": 4884,
      "wordpress": 4885,
      "oke": 4886,
      "xious": 4887,
      "yess": 4888,
      "phil": 4889,
      "caro": 4890,
      "flies": 4891,
      "flood": 4892,
      "animals": 4893,
      "crowd": 4894,
      "logo": 4895,
      "forced": 4896,
      "nig": 4897,
      "bites": 4898,
      "frustrating": 4899,
      "particular": 4900,
      "dare": 4901,
      "todays": 4902,
      "useful": 4903,
      "dreaming": 4904,
      "cups": 4905,
      "effe": 4906,
      "successful": 4907,
      "icon": 4908,
      "atic": 4909,
      "waitin": 4910,
      "landed": 4911,
      "kobe": 4912,
      "subway": 4913,
      "lls": 4914,
      "rocked": 4915,
      "pregn": 4916,
      "snugg": 4917,
      "nar": 4918,
      "tone": 4919,
      "amanda": 4920,
      "offline": 4921,
      "tunes": 4922,
      "failing": 4923,
      "75": 4924,
      "jst": 4925,
      "bein": 4926,
      "replying": 4927,
      "cherry": 4928,
      "opinion": 4929,
      "bree": 4930,
      "bones": 4931,
      "cop": 4932,
      "pops": 4933,
      "boun": 4934,
      "mega": 4935,
      "lace": 4936,
      "tasty": 4937,
      "spoil": 4938,
      "une": 4939,
      "unfair": 4940,
      "plug": 4941,
      "mies": 4942,
      "gona": 4943,
      "smith": 4944,
      "eventually": 4945,
      "customer": 4946,
      "tastes": 4947,
      "rey": 4948,
      "sooner": 4949,
      "aaaay": 4950,
      "yumm": 4951,
      "rehearsal": 4952,
      "technology": 4953,
      "comedy": 4954,
      "emer": 4955,
      "calm": 4956,
      "terribly": 4957,
      "motivation": 4958,
      "bies": 4959,
      "wie": 4960,
      "domin": 4961,
      "minus": 4962,
      "grandpa": 4963,
      "bitches": 4964,
      "smoking": 4965,
      "theatre": 4966,
      "bone": 4967,
      "ani": 4968,
      "trade": 4969,
      "poorly": 4970,
      "manager": 4971,
      "depends": 4972,
      "security": 4973,
      "tgif": 4974,
      "ppers": 4975,
      "saus": 4976,
      "tells": 4977,
      "sia": 4978,
      "blogs": 4979,
      "rrrrrrrr": 4980,
      "connected": 4981,
      "wallet": 4982,
      "mcdonalds": 4983,
      "rio": 4984,
      "waited": 4985,
      "drew": 4986,
      "zzle": 4987,
      "roller": 4988,
      "popcorn": 4989,
      "accidentally": 4990,
      "police": 4991,
      "anne": 4992,
      "shops": 4993,
      "diego": 4994,
      "blonde": 4995,
      "32": 4996,
      "oz": 4997,
      "regard": 4998,
      "every1": 4999,
      "partying": 5000,
      "photoshop": 5001,
      "failure": 5002,
      "accounts": 5003,
      "hooray": 5004,
      "paranoid": 5005,
      "ib": 5006,
      "rass": 5007,
      "var": 5008,
      "tout": 5009,
      "christmas": 5010,
      "fred": 5011,
      "asing": 5012,
      "stores": 5013,
      "porn": 5014,
      "colum": 5015,
      "biology": 5016,
      "awkward": 5017,
      "beans": 5018,
      "cob": 5019,
      "raw": 5020,
      "ability": 5021,
      "phy": 5022,
      "nature": 5023,
      "tank": 5024,
      "ando": 5025,
      "roman": 5026,
      "sayin": 5027,
      "luckily": 5028,
      "laughed": 5029,
      "obama": 5030,
      "package": 5031,
      "involved": 5032,
      "spare": 5033,
      "panic": 5034,
      "delivery": 5035,
      "spoke": 5036,
      "demand": 5037,
      ".'": 5038,
      "mainten": 5039,
      "twits": 5040,
      "tsk": 5041,
      "convo": 5042,
      "walmart": 5043,
      "dollars": 5044,
      "above": 5045,
      "blip": 5046,
      "dh": 5047,
      "somethin": 5048,
      "bathing": 5049,
      "partner": 5050,
      "wrk": 5051,
      "theart": 5052,
      "poison": 5053,
      "rainbow": 5054,
      "smiles": 5055,
      "zzzzzzzz": 5056,
      "36": 5057,
      "gmail": 5058,
      "theater": 5059,
      "lift": 5060,
      "utter": 5061,
      "plur": 5062,
      "stolen": 5063,
      "tryna": 5064,
      "xox": 5065,
      "aso": 5066,
      "wy": 5067,
      "wud": 5068,
      "beats": 5069,
      "rachel": 5070,
      "password": 5071,
      "mummy": 5072,
      "crashing": 5073,
      "mixed": 5074,
      "windy": 5075,
      "pushing": 5076,
      "lisa": 5077,
      "dread": 5078,
      "mester": 5079,
      "hack": 5080,
      "warning": 5081,
      "assignments": 5082,
      "vodka": 5083,
      "eno": 5084,
      "xp": 5085,
      "reunion": 5086,
      "socks": 5087,
      "alter": 5088,
      "slee": 5089,
      "cult": 5090,
      "fixing": 5091,
      "celebrity": 5092,
      "wireless": 5093,
      "lb": 5094,
      "stan": 5095,
      "haz": 5096,
      "youuu": 5097,
      "thern": 5098,
      "guessing": 5099,
      "fami": 5100,
      "shiny": 5101,
      "chin": 5102,
      "forgive": 5103,
      "poster": 5104,
      "divor": 5105,
      "incredibly": 5106,
      "develop": 5107,
      "48": 5108,
      "gooood": 5109,
      "flower": 5110,
      "laura": 5111,
      "predic": 5112,
      "21st": 5113,
      "ket": 5114,
      "tall": 5115,
      "repair": 5116,
      "female": 5117,
      "jazz": 5118,
      "gia": 5119,
      "lley": 5120,
      "tiring": 5121,
      "william": 5122,
      "photography": 5123,
      "hangin": 5124,
      "coursework": 5125,
      "poop": 5126,
      "ell": 5127,
      "takin": 5128,
      "clin": 5129,
      "geez": 5130,
      "cis": 5131,
      "melt": 5132,
      "joey": 5133,
      "installing": 5134,
      "bai": 5135,
      "sets": 5136,
      "collection": 5137,
      "pieces": 5138,
      "awa": 5139,
      "sher": 5140,
      "thingy": 5141,
      "mich": 5142,
      "proof": 5143,
      "duck": 5144,
      "disneyland": 5145,
      "lc": 5146,
      "toile": 5147,
      "theory": 5148,
      "metal": 5149,
      "unfollow": 5150,
      "ohhhh": 5151,
      "pete": 5152,
      "fishing": 5153,
      "digital": 5154,
      "',": 5155,
      "wks": 5156,
      "lest": 5157,
      "solo": 5158,
      "asian": 5159,
      "maid": 5160,
      "ample": 5161,
      "plate": 5162,
      "graduating": 5163,
      "tbh": 5164,
      "diss": 5165,
      "kir": 5166,
      "nug": 5167,
      "yayy": 5168,
      "sounded": 5169,
      "blin": 5170,
      "30pm": 5171,
      "fyi": 5172,
      "united": 5173,
      "shel": 5174,
      "hunt": 5175,
      "washed": 5176,
      "entertaining": 5177,
      "zero": 5178,
      "fare": 5179,
      "nba": 5180,
      "plast": 5181,
      "wth": 5182,
      "ets": 5183,
      "intern": 5184,
      "eeeeeee": 5185,
      "passion": 5186,
      "champion": 5187,
      "recovering": 5188,
      "maintenance": 5189,
      "jones": 5190,
      "rant": 5191,
      "necess": 5192,
      "pathetic": 5193,
      "headphones": 5194,
      "hhhhh": 5195,
      "university": 5196,
      "ggling": 5197,
      "loun": 5198,
      "mater": 5199,
      "thum": 5200,
      "remo": 5201,
      "spill": 5202,
      "blogging": 5203,
      "prepare": 5204,
      "wheel": 5205,
      "pine": 5206,
      "belong": 5207,
      "shy": 5208,
      "realise": 5209,
      "dropping": 5210,
      "deserved": 5211,
      "hiding": 5212,
      "noodles": 5213,
      "dissa": 5214,
      "youth": 5215,
      "leon": 5216,
      "lebron": 5217,
      "laid": 5218,
      "gum": 5219,
      "yesss": 5220,
      "crunch": 5221,
      "hp": 5222,
      "upgrad": 5223,
      "hahahahaha": 5224,
      "thankful": 5225,
      "trick": 5226,
      "boxes": 5227,
      "bride": 5228,
      "ngth": 5229,
      "munch": 5230,
      "tch": 5231,
      "complic": 5232,
      "venue": 5233,
      "turkey": 5234,
      "hits": 5235,
      "toni": 5236,
      "thee": 5237,
      "dece": 5238,
      "comfort": 5239,
      "hihi": 5240,
      "trash": 5241,
      "disco": 5242,
      "application": 5243,
      "emotional": 5244,
      "patch": 5245,
      "megan": 5246,
      "concentr": 5247,
      "tweeter": 5248,
      "shape": 5249,
      "stuffed": 5250,
      "saturdays": 5251,
      "pets": 5252,
      "reminded": 5253,
      "nadal": 5254,
      "97": 5255,
      "fw": 5256,
      "panda": 5257,
      "wil": 5258,
      "sunglasses": 5259,
      "typical": 5260,
      "mari": 5261,
      "musicmonday": 5262,
      "swing": 5263,
      "hooked": 5264,
      "introdu": 5265,
      "cul": 5266,
      "insur": 5267,
      "donuts": 5268,
      "jury": 5269,
      "thread": 5270,
      "otb": 5271,
      "burg": 5272,
      "uuuuuuuu": 5273,
      "((((": 5274,
      "location": 5275,
      "ike": 5276,
      "envy": 5277,
      "papa": 5278,
      "appt": 5279,
      "dull": 5280,
      "param": 5281,
      "attra": 5282,
      "arse": 5283,
      "useless": 5284,
      "playlist": 5285,
      "kyle": 5286,
      "role": 5287,
      "outs": 5288,
      "license": 5289,
      "laws": 5290,
      "vices": 5291,
      "honor": 5292,
      "frozen": 5293,
      "medicine": 5294,
      "km": 5295,
      "semester": 5296,
      "coach": 5297,
      "shud": 5298,
      "anky": 5299,
      "surprising": 5300,
      "prepared": 5301,
      "relationship": 5302,
      "ette": 5303,
      "shou": 5304,
      "rug": 5305,
      "ians": 5306,
      "slo": 5307,
      "ured": 5308,
      "nicely": 5309,
      "sweetheart": 5310,
      "solution": 5311,
      "danger": 5312,
      "!,": 5313,
      "pitch": 5314,
      "members": 5315,
      "greek": 5316,
      "ooooh": 5317,
      "groo": 5318,
      "serve": 5319,
      "publ": 5320,
      "oppo": 5321,
      "retard": 5322,
      "information": 5323,
      "stinks": 5324,
      "argent": 5325,
      "robot": 5326,
      "marry": 5327,
      "marks": 5328,
      "warped": 5329,
      "graduated": 5330,
      "hyper": 5331,
      "fs": 5332,
      "towards": 5333,
      "loe": 5334,
      "chem": 5335,
      "afterwards": 5336,
      "rooms": 5337,
      "dedic": 5338,
      "pounds": 5339,
      "contract": 5340,
      "sox": 5341,
      "format": 5342,
      "funni": 5343,
      "carto": 5344,
      "emma": 5345,
      "craz": 5346,
      "18th": 5347,
      "snack": 5348,
      "stephen": 5349,
      "nkotb": 5350,
      "vm": 5351,
      "erer": 5352,
      "isa": 5353,
      "xxxxx": 5354,
      "definately": 5355,
      "babes": 5356,
      "ellen": 5357,
      "tomor": 5358,
      "ena": 5359,
      "asks": 5360,
      "wives": 5361,
      "tweetup": 5362,
      "crit": 5363,
      "horror": 5364,
      "rockin": 5365,
      "victori": 5366,
      "insurance": 5367,
      "9am": 5368,
      "busted": 5369,
      "tet": 5370,
      "remix": 5371,
      "lah": 5372,
      "waves": 5373,
      "skip": 5374,
      "computers": 5375,
      "completed": 5376,
      "effing": 5377,
      "caffe": 5378,
      "ized": 5379,
      "removed": 5380,
      "stro": 5381,
      "judge": 5382,
      "created": 5383,
      "pleasant": 5384,
      "volun": 5385,
      "opera": 5386,
      "sr": 5387,
      "igan": 5388,
      "concerts": 5389,
      "position": 5390,
      "source": 5391,
      "improve": 5392,
      "embarrass": 5393,
      "lounge": 5394,
      "jar": 5395,
      "zac": 5396,
      "tok": 5397,
      "timing": 5398,
      "pepper": 5399,
      "bom": 5400,
      "curry": 5401,
      "confid": 5402,
      "intense": 5403,
      "split": 5404,
      "lips": 5405,
      "jake": 5406,
      "sooooooo": 5407,
      "prayer": 5408,
      "wknd": 5409,
      "weakness": 5410,
      "lemme": 5411,
      "!?!": 5412,
      "55": 5413,
      "ub": 5414,
      "nicole": 5415,
      "irrit": 5416,
      "cutie": 5417,
      "chain": 5418,
      "budget": 5419,
      "ave": 5420,
      "users": 5421,
      "willing": 5422,
      "scrip": 5423,
      "michelle": 5424,
      "compliment": 5425,
      "ilove": 5426,
      "vas": 5427,
      "ohio": 5428,
      "condo": 5429,
      "schools": 5430,
      "tracks": 5431,
      "bsb": 5432,
      "emine": 5433,
      "legend": 5434,
      "nz": 5435,
      "nee": 5436,
      "stun": 5437,
      "gow": 5438,
      "upon": 5439,
      "spray": 5440,
      "whore": 5441,
      "nya": 5442,
      "hiya": 5443,
      "browser": 5444,
      "kia": 5445,
      "shave": 5446,
      "toms": 5447,
      "halo": 5448,
      "plants": 5449,
      "aware": 5450,
      "peoples": 5451,
      "disgust": 5452,
      "bia": 5453,
      "jerk": 5454,
      "receive": 5455,
      "heroes": 5456,
      "mosqui": 5457,
      "cramps": 5458,
      "paramore": 5459,
      "amen": 5460,
      "ec": 5461,
      "thous": 5462,
      "lio": 5463,
      "semi": 5464,
      "headaches": 5465,
      "hearts": 5466,
      "instru": 5467,
      "thumb": 5468,
      "recit": 5469,
      "encou": 5470,
      "bitter": 5471,
      "blows": 5472,
      "addiction": 5473,
      "louis": 5474,
      "kristen": 5475,
      "jackson": 5476,
      "jas": 5477,
      "nash": 5478,
      "army": 5479,
      "ency": 5480,
      "ghhh": 5481,
      "mailed": 5482,
      "dex": 5483,
      "indian": 5484,
      "resting": 5485,
      "denver": 5486,
      "cupcake": 5487,
      "writer": 5488,
      "quake": 5489,
      "'!": 5490,
      "nj": 5491,
      "lolol": 5492,
      "abs": 5493,
      "naw": 5494,
      "vista": 5495,
      "transfer": 5496,
      "grill": 5497,
      "communic": 5498,
      "virtual": 5499,
      "inn": 5500,
      "edin": 5501,
      "bugger": 5502,
      "kara": 5503,
      "64": 5504,
      "drow": 5505,
      "recipe": 5506,
      "neighbors": 5507,
      "fal": 5508,
      "scan": 5509,
      "mums": 5510,
      "chea": 5511,
      "cials": 5512,
      "cooler": 5513,
      "aaaaaa": 5514,
      "audi": 5515,
      "joining": 5516,
      "gp": 5517,
      "lbs": 5518,
      "rang": 5519,
      "noes": 5520,
      "holla": 5521,
      "dot": 5522,
      "clients": 5523,
      "yogur": 5524,
      "thousand": 5525,
      "):": 5526,
      "sms": 5527,
      "itis": 5528,
      "shed": 5529,
      "guide": 5530,
      "combin": 5531,
      "hasnt": 5532,
      "tub": 5533,
      "icky": 5534,
      "disappeared": 5535,
      "java": 5536,
      "thai": 5537,
      "document": 5538,
      "fig": 5539,
      "hated": 5540,
      "swa": 5541,
      "incre": 5542,
      "poke": 5543,
      "fawc": 5544,
      "monitor": 5545,
      "craft": 5546,
      "ashes": 5547,
      "perfectly": 5548,
      "knocked": 5549,
      "younger": 5550,
      "7th": 5551,
      "twitterland": 5552,
      "bueno": 5553,
      "carpet": 5554,
      "survi": 5555,
      "apy": 5556,
      "grandparents": 5557,
      "sident": 5558,
      "excite": 5559,
      "strawberries": 5560,
      "owe": 5561,
      "vity": 5562,
      "thou": 5563,
      "sob": 5564,
      "ghh": 5565,
      "dope": 5566,
      "reached": 5567,
      "duh": 5568,
      "effort": 5569,
      "cruel": 5570,
      "tumbl": 5571,
      "volunte": 5572,
      "fry": 5573,
      "od": 5574,
      "nels": 5575,
      "caps": 5576,
      "theyre": 5577,
      "chores": 5578,
      "kkk": 5579,
      "shortly": 5580,
      "username": 5581,
      "itude": 5582,
      "negative": 5583,
      "eminem": 5584,
      "inju": 5585,
      "vey": 5586,
      "soa": 5587,
      "ids": 5588,
      "happier": 5589,
      "yayyy": 5590,
      "mp3": 5591,
      "toilet": 5592,
      "gab": 5593,
      "goooo": 5594,
      "mint": 5595,
      "buddies": 5596,
      "relieve": 5597,
      "thomas": 5598,
      "gooooo": 5599,
      "vr": 5600,
      "toooo": 5601,
      "myster": 5602,
      "tick": 5603,
      "sec": 5604,
      "baked": 5605,
      "confirm": 5606,
      "whew": 5607,
      "raz": 5608,
      "ify": 5609,
      "sleepover": 5610,
      "drivers": 5611,
      "filming": 5612,
      "spelling": 5613,
      "hers": 5614,
      "escape": 5615,
      "linux": 5616,
      "promised": 5617,
      "subject": 5618,
      "appears": 5619,
      "titan": 5620,
      "opportunity": 5621,
      "?,": 5622,
      "wats": 5623,
      "everyones": 5624,
      "tless": 5625,
      "craw": 5626,
      "beast": 5627,
      "sync": 5628,
      "personally": 5629,
      "lina": 5630,
      "pumped": 5631,
      "nw": 5632,
      "wag": 5633,
      "downstairs": 5634,
      "sci": 5635,
      "brook": 5636,
      "root": 5637,
      "oven": 5638,
      "chor": 5639,
      "wher": 5640,
      "plat": 5641,
      "twitt": 5642,
      "wished": 5643,
      "forecast": 5644,
      "career": 5645,
      "trees": 5646,
      "product": 5647,
      "techni": 5648,
      "filling": 5649,
      "confirmed": 5650,
      "jr": 5651,
      "irish": 5652,
      "icecream": 5653,
      "helpful": 5654,
      "dvds": 5655,
      "christian": 5656,
      "noone": 5657,
      "ghet": 5658,
      "entry": 5659,
      "berlin": 5660,
      "marley": 5661,
      "bliss": 5662,
      "booth": 5663,
      "sucky": 5664,
      "grateful": 5665,
      "dic": 5666,
      "dess": 5667,
      "gots": 5668,
      "scra": 5669,
      "dublin": 5670,
      "horri": 5671,
      "vention": 5672,
      "nightmares": 5673,
      ")!": 5674,
      "ule": 5675,
      "rend": 5676,
      "buff": 5677,
      "themselves": 5678,
      "nevermind": 5679,
      "lower": 5680,
      "norway": 5681,
      "susp": 5682,
      "brownies": 5683,
      "reviews": 5684,
      "traveling": 5685,
      "thunderstorm": 5686,
      "daniel": 5687,
      "dye": 5688,
      "loooo": 5689,
      "sean": 5690,
      "safar": 5691,
      "talks": 5692,
      "dale": 5693,
      "claim": 5694,
      "yogurt": 5695,
      "h1": 5696,
      "thr": 5697,
      "waa": 5698,
      "eatin": 5699,
      "kills": 5700,
      "ledge": 5701,
      "sara": 5702,
      "tweeple": 5703,
      "fawcett": 5704,
      "ease": 5705,
      "puts": 5706,
      "skate": 5707,
      "rly": 5708,
      "shad": 5709,
      "tomy": 5710,
      "argu": 5711,
      "lily": 5712,
      "tific": 5713,
      "issy": 5714,
      "homemade": 5715,
      "answers": 5716,
      "tribut": 5717,
      "rocking": 5718,
      "brid": 5719,
      "teena": 5720,
      "native": 5721,
      "exhaust": 5722,
      "statement": 5723,
      "sticks": 5724,
      "asot": 5725,
      "phe": 5726,
      "santa": 5727,
      "ckin": 5728,
      "stops": 5729,
      "whoever": 5730,
      "mario": 5731,
      "pengu": 5732,
      "sony": 5733,
      "buntu": 5734,
      "responsi": 5735,
      "babysit": 5736,
      "nuggets": 5737,
      "safari": 5738,
      "fits": 5739,
      "lun": 5740,
      "nxt": 5741,
      "reje": 5742,
      "ened": 5743,
      "negle": 5744,
      "ppp": 5745,
      "jose": 5746,
      "essions": 5747,
      "bars": 5748,
      "sssss": 5749,
      "puppies": 5750,
      "fying": 5751,
      "plurk": 5752,
      "dating": 5753,
      "meeee": 5754,
      "lime": 5755,
      "squir": 5756,
      "dvr": 5757,
      "journal": 5758,
      "murder": 5759,
      "society": 5760,
      "counter": 5761,
      "remote": 5762,
      "tad": 5763,
      "returned": 5764,
      "hash": 5765,
      "buck": 5766,
      "ignoring": 5767,
      "path": 5768,
      "wore": 5769,
      "10am": 5770,
      "prices": 5771,
      "robin": 5772,
      "whoop": 5773,
      "geography": 5774,
      "premiere": 5775,
      "gary": 5776,
      "veget": 5777,
      "homie": 5778,
      "included": 5779,
      "jessica": 5780,
      "cries": 5781,
      "eva": 5782,
      "assist": 5783,
      "verage": 5784,
      "hahaa": 5785,
      "provid": 5786,
      "apply": 5787,
      "dub": 5788,
      "audition": 5789,
      "junior": 5790,
      "vampire": 5791,
      "argentina": 5792,
      "disgusting": 5793,
      "mph": 5794,
      "jelly": 5795,
      "films": 5796,
      "further": 5797,
      "ui": 5798,
      "oop": 5799,
      "sav": 5800,
      "colors": 5801,
      "complaining": 5802,
      "ttyl": 5803,
      "thumbs": 5804,
      "complicated": 5805,
      "worn": 5806,
      "profession": 5807,
      "dealing": 5808,
      "johnny": 5809,
      "umbre": 5810,
      "ships": 5811,
      "thunderstorms": 5812,
      "pregnant": 5813,
      "caffeine": 5814,
      "jj": 5815,
      "enix": 5816,
      "ille": 5817,
      "marri": 5818,
      "roomm": 5819,
      "author": 5820,
      "rolls": 5821,
      "pulling": 5822,
      "images": 5823,
      "grumpy": 5824,
      "sab": 5825,
      "anxious": 5826,
      "ona": 5827,
      "unable": 5828,
      "rafa": 5829,
      "shor": 5830,
      "friggin": 5831,
      "mines": 5832,
      "craig": 5833,
      "jacob": 5834,
      "loading": 5835,
      "autom": 5836,
      "logies": 5837,
      "recommendation": 5838,
      "struggling": 5839,
      "families": 5840,
      "srs": 5841,
      "shif": 5842,
      "mira": 5843,
      "votes": 5844,
      "multiple": 5845,
      "factory": 5846,
      "fet": 5847,
      "ira": 5848,
      "jane": 5849,
      "sno": 5850,
      "sian": 5851,
      "excitement": 5852,
      "hint": 5853,
      "ander": 5854,
      "exchange": 5855,
      "ffs": 5856,
      "jamie": 5857,
      "depend": 5858,
      "valley": 5859,
      "tai": 5860,
      "flights": 5861,
      "federer": 5862,
      "skinny": 5863,
      "coolest": 5864,
      "bleeding": 5865,
      "emergen": 5866,
      "titanic": 5867,
      "ditch": 5868,
      "league": 5869,
      "bake": 5870,
      "items": 5871,
      "mango": 5872,
      "berg": 5873,
      "closet": 5874,
      "answered": 5875,
      "))))": 5876,
      "flew": 5877,
      "electri": 5878,
      "api": 5879,
      "ubuntu": 5880,
      "hacked": 5881,
      "800": 5882,
      "dred": 5883,
      "mun": 5884,
      "whit": 5885,
      "twitterberry": 5886,
      "dding": 5887,
      "ako": 5888,
      "squee": 5889,
      "dollar": 5890,
      "psycho": 5891,
      "africa": 5892,
      "1am": 5893,
      "hugh": 5894,
      "pump": 5895,
      "uhh": 5896,
      "sober": 5897,
      "forgetting": 5898,
      "ggle": 5899,
      "cracked": 5900,
      "staring": 5901,
      "foods": 5902,
      "opti": 5903,
      "scheduled": 5904,
      "zombie": 5905,
      "laker": 5906,
      "quotes": 5907,
      "owner": 5908,
      "circle": 5909,
      "recital": 5910,
      "6pm": 5911,
      "punk": 5912,
      "wot": 5913,
      "todd": 5914,
      "became": 5915,
      "kel": 5916,
      "precious": 5917,
      "shoulda": 5918,
      "vines": 5919,
      "adore": 5920,
      "katy": 5921,
      "relig": 5922,
      "dup": 5923,
      "held": 5924,
      "tiff": 5925,
      "touched": 5926,
      "stressful": 5927,
      "deter": 5928,
      "glasgow": 5929,
      "bil": 5930,
      "bash": 5931,
      "daw": 5932,
      "wink": 5933,
      "invest": 5934,
      "moder": 5935,
      "tap": 5936,
      "cling": 5937,
      "phoenix": 5938,
      "hosting": 5939,
      "distur": 5940,
      "aaron": 5941,
      "ea": 5942,
      "rin": 5943,
      "remain": 5944,
      "backup": 5945,
      "pretend": 5946,
      "messing": 5947,
      "sonic": 5948,
      "britt": 5949,
      "reception": 5950,
      "rescue": 5951,
      "bbit": 5952,
      "fone": 5953,
      "gc": 5954,
      "pills": 5955,
      "oned": 5956,
      "aret": 5957,
      "surfing": 5958,
      "richard": 5959,
      "ame": 5960,
      "wrap": 5961,
      "iture": 5962,
      "holic": 5963,
      "aming": 5964,
      "thering": 5965,
      "expl": 5966,
      "joys": 5967,
      "sorta": 5968,
      "accent": 5969,
      "ulti": 5970,
      "cud": 5971,
      "listenin": 5972,
      "ginger": 5973,
      "kh": 5974,
      "sts": 5975,
      "therapy": 5976,
      "ggies": 5977,
      "international": 5978,
      "couver": 5979,
      "cleve": 5980,
      "achie": 5981,
      "salt": 5982,
      "kore": 5983,
      "educ": 5984,
      "furn": 5985,
      "mut": 5986,
      "rove": 5987,
      "els": 5988,
      "stays": 5989,
      "centre": 5990,
      "legal": 5991,
      "route": 5992,
      "spymaster": 5993,
      "calend": 5994,
      "victoria": 5995,
      "gni": 5996,
      "inno": 5997,
      "attempting": 5998,
      "chrome": 5999,
      "fili": 6000,
      "vancouver": 6001,
      "karma": 6002,
      "sheets": 6003,
      "biscu": 6004,
      "gaw": 6005,
      "nine": 6006,
      "wend": 6007,
      "yank": 6008,
      "leigh": 6009,
      "pains": 6010,
      "signal": 6011,
      "dragon": 6012,
      "options": 6013,
      "drugs": 6014,
      "asot400": 6015,
      "dl": 6016,
      "thre": 6017,
      "grant": 6018,
      "manila": 6019,
      "kki": 6020,
      "dresses": 6021,
      "snl": 6022,
      "gurl": 6023,
      "aussie": 6024,
      "66": 6025,
      "pd": 6026,
      "sink": 6027,
      "lik": 6028,
      "hem": 6029,
      "coco": 6030,
      "aging": 6031,
      "eeds": 6032,
      "guard": 6033,
      "shocked": 6034,
      "tuned": 6035,
      "beef": 6036,
      "shattered": 6037,
      "sq": 6038,
      "sway": 6039,
      "vom": 6040,
      "lova": 6041,
      "drun": 6042,
      "clever": 6043,
      "10pm": 6044,
      "diff": 6045,
      "patter": 6046,
      "bees": 6047,
      "recorded": 6048,
      "leve": 6049,
      "mack": 6050,
      "expo": 6051,
      "follows": 6052,
      "gray": 6053,
      "prison": 6054,
      "boarding": 6055,
      "devil": 6056,
      "31": 6057,
      "omy": 6058,
      "separ": 6059,
      "somewhat": 6060,
      "reaction": 6061,
      "dip": 6062,
      "skir": 6063,
      "rested": 6064,
      "surf": 6065,
      "braces": 6066,
      "shipping": 6067,
      "tempted": 6068,
      "2night": 6069,
      "lum": 6070,
      "ua": 6071,
      "ories": 6072,
      "dizzy": 6073,
      "sickness": 6074,
      "hardcore": 6075,
      "menu": 6076,
      "patrick": 6077,
      "leader": 6078,
      "lovee": 6079,
      "potato": 6080,
      "cleveland": 6081,
      "izing": 6082,
      "unhappy": 6083,
      "thankfully": 6084,
      "burgers": 6085,
      "advant": 6086,
      "mers": 6087,
      "task": 6088,
      "xy": 6089,
      "oring": 6090,
      "usb": 6091,
      "sleeps": 6092,
      "indy": 6093,
      "blew": 6094,
      "moves": 6095,
      "submit": 6096,
      "randomly": 6097,
      "bamboo": 6098,
      "ull": 6099,
      "quali": 6100,
      "shire": 6101,
      "higher": 6102,
      "charlot": 6103,
      "dougie": 6104,
      "heaps": 6105,
      "purchase": 6106,
      "cheesecake": 6107,
      "flags": 6108,
      "folk": 6109,
      "mirror": 6110,
      "ikea": 6111,
      "sequ": 6112,
      "spong": 6113,
      "built": 6114,
      "curse": 6115,
      "commit": 6116,
      "stalker": 6117,
      "december": 6118,
      "9th": 6119,
      "mg": 6120,
      "org": 6121,
      "mond": 6122,
      "dudes": 6123,
      "mitchel": 6124,
      "survived": 6125,
      "sweden": 6126,
      "lal": 6127,
      "pff": 6128,
      "roit": 6129,
      "alan": 6130,
      "donnie": 6131,
      "steps": 6132,
      "blush": 6133,
      "ballo": 6134,
      "matthe": 6135,
      "pattin": 6136,
      "graphic": 6137,
      "emergency": 6138,
      "38": 6139,
      "holes": 6140,
      "naught": 6141,
      "spark": 6142,
      "php": 6143,
      "blur": 6144,
      "coverage": 6145,
      "campus": 6146,
      "plastic": 6147,
      "soaked": 6148,
      "md": 6149,
      "mn": 6150,
      "noooooo": 6151,
      "pile": 6152,
      "twins": 6153,
      "nause": 6154,
      "sadden": 6155,
      "girly": 6156,
      "minds": 6157,
      "reports": 6158,
      "simon": 6159,
      "safely": 6160,
      "jumping": 6161,
      "francis": 6162,
      "shoutout": 6163,
      "liqu": 6164,
      "backyard": 6165,
      "rubs": 6166,
      "kinds": 6167,
      "umbrella": 6168,
      "pattinson": 6169,
      "overnight": 6170,
      "paste": 6171,
      "bestfriend": 6172,
      "march": 6173,
      "stew": 6174,
      "sweets": 6175,
      "jud": 6176,
      "compan": 6177,
      "vanilla": 6178,
      "detroit": 6179,
      "include": 6180,
      "distance": 6181,
      "sneezing": 6182,
      "rhy": 6183,
      "habit": 6184,
      "sofa": 6185,
      "heyyy": 6186,
      "15th": 6187,
      "effin": 6188,
      "polish": 6189,
      "eek": 6190,
      "adult": 6191,
      "joking": 6192,
      "leavin": 6193,
      "scen": 6194,
      "discount": 6195,
      "reminder": 6196,
      "boredom": 6197,
      "o2": 6198,
      "oi": 6199,
      "inbox": 6200,
      "indoors": 6201,
      "nokia": 6202,
      "asure": 6203,
      "beers": 6204,
      "rod": 6205,
      "abc": 6206,
      "pep": 6207,
      "stopping": 6208,
      "perry": 6209,
      "hundred": 6210,
      "believ": 6211,
      "mmmmmmmm": 6212,
      "knw": 6213,
      "addictive": 6214,
      "beyonce": 6215,
      "procrastin": 6216,
      "yaaay": 6217,
      "gods": 6218,
      "worker": 6219,
      "twitterville": 6220,
      "mony": 6221,
      "favorites": 6222,
      "apologi": 6223,
      "suspended": 6224,
      "srsly": 6225,
      "oy": 6226,
      "ole": 6227,
      "replaced": 6228,
      "asia": 6229,
      "delight": 6230,
      "dislike": 6231,
      "parad": 6232,
      "choc": 6233,
      "tourna": 6234,
      "relative": 6235,
      "settings": 6236,
      "convince": 6237,
      "neighbours": 6238,
      "booooo": 6239,
      "fas": 6240,
      "tent": 6241,
      "mug": 6242,
      "studies": 6243,
      "bian": 6244,
      "supernatural": 6245,
      "creating": 6246,
      "itches": 6247,
      "loop": 6248,
      "management": 6249,
      "korean": 6250,
      "furniture": 6251,
      "pg": 6252,
      "solid": 6253,
      "alpha": 6254,
      "cope": 6255,
      "reader": 6256,
      "services": 6257,
      "teachers": 6258,
      "cooper": 6259,
      "accomplished": 6260,
      "nashville": 6261,
      "toss": 6262,
      "arian": 6263,
      "hardest": 6264,
      "bible": 6265,
      "products": 6266,
      "severe": 6267,
      "map": 6268,
      "lux": 6269,
      "besties": 6270,
      "humor": 6271,
      "drum": 6272,
      "countdown": 6273,
      "answering": 6274,
      "purpose": 6275,
      "customers": 6276,
      ".(": 6277,
      "34": 6278,
      "eag": 6279,
      "gad": 6280,
      "remove": 6281,
      "neat": 6282,
      "mono": 6283,
      "disc": 6284,
      "volley": 6285,
      "suffer": 6286,
      "distracted": 6287,
      "fif": 6288,
      "gimme": 6289,
      "itz": 6290,
      "chile": 6291,
      "etsy": 6292,
      "bikin": 6293,
      "heather": 6294,
      "celebration": 6295,
      "jerry": 6296,
      "havnt": 6297,
      "entertainment": 6298,
      "forms": 6299,
      "coat": 6300,
      "workers": 6301,
      "sake": 6302,
      "grew": 6303,
      "chilly": 6304,
      "fails": 6305,
      "aaaah": 6306,
      "turtle": 6307,
      "wifey": 6308,
      "volution": 6309,
      "reckon": 6310,
      "sponge": 6311,
      "gil": 6312,
      "lp": 6313,
      "nack": 6314,
      "sies": 6315,
      "hire": 6316,
      "descri": 6317,
      "recovery": 6318,
      "presents": 6319,
      "concentrate": 6320,
      "brew": 6321,
      "amin": 6322,
      "eter": 6323,
      "depart": 6324,
      "combo": 6325,
      "girlie": 6326,
      "hott": 6327,
      "yucky": 6328,
      "woods": 6329,
      "ivity": 6330,
      "toys": 6331,
      "iter": 6332,
      "maker": 6333,
      "urban": 6334,
      "tacos": 6335,
      "soundtrack": 6336,
      "loaded": 6337,
      "realy": 6338,
      "memorial": 6339,
      "routine": 6340,
      "9pm": 6341,
      "bility": 6342,
      "cds": 6343,
      "soda": 6344,
      "domain": 6345,
      "bache": 6346,
      "headin": 6347,
      "jaja": 6348,
      "syn": 6349,
      "prior": 6350,
      "potential": 6351,
      "alice": 6352,
      "17th": 6353,
      "costs": 6354,
      "features": 6355,
      "performing": 6356,
      "retarded": 6357,
      "tumblr": 6358,
      "edition": 6359,
      "aband": 6360,
      "bled": 6361,
      "archule": 6362,
      "kicks": 6363,
      "naughty": 6364,
      "cers": 6365,
      "mite": 6366,
      "ues": 6367,
      "ata": 6368,
      "formed": 6369,
      "amster": 6370,
      "cep": 6371,
      "mud": 6372,
      "phi": 6373,
      "acc": 6374,
      "martin": 6375,
      "appropri": 6376,
      "archuleta": 6377,
      "jere": 6378,
      "sg": 6379,
      "init": 6380,
      "goodnite": 6381,
      "finan": 6382,
      "silence": 6383,
      "awesomeness": 6384,
      "texted": 6385,
      "fairy": 6386,
      "portu": 6387,
      "5pm": 6388,
      "emailed": 6389,
      "hooo": 6390,
      "rated": 6391,
      "tidy": 6392,
      "nest": 6393,
      "dones": 6394,
      "conver": 6395,
      "pak": 6396,
      "ruby": 6397,
      "sket": 6398,
      "matters": 6399,
      "charity": 6400,
      "blessings": 6401,
      "quoto": 6402,
      "broadcast": 6403,
      "sausage": 6404,
      "08": 6405,
      "eight": 6406,
      "lj": 6407,
      "lance": 6408,
      "upside": 6409,
      "imp": 6410,
      "bac": 6411,
      "mms": 6412,
      "sorting": 6413,
      "cuts": 6414,
      "10th": 6415,
      "grounded": 6416,
      "ultimate": 6417,
      "charlotte": 6418,
      "gw": 6419,
      "lous": 6420,
      "range": 6421,
      "lef": 6422,
      "nicer": 6423,
      "abit": 6424,
      "shouldnt": 6425,
      "players": 6426,
      "lists": 6427,
      "mighty": 6428,
      "messy": 6429,
      "falls": 6430,
      "fallen": 6431,
      "anatomy": 6432,
      "fantasy": 6433,
      "motivated": 6434,
      "tomato": 6435,
      "miracle": 6436,
      "lovato": 6437,
      "zle": 6438,
      "bucket": 6439,
      "whose": 6440,
      "margar": 6441,
      "101": 6442,
      "famili": 6443,
      "salon": 6444,
      "sunburned": 6445,
      "washington": 6446,
      "dessert": 6447,
      "jaw": 6448,
      "arg": 6449,
      "lob": 6450,
      "etime": 6451,
      "wack": 6452,
      "overall": 6453,
      "brb": 6454,
      "bloo": 6455,
      "horny": 6456,
      "laughs": 6457,
      "celebs": 6458,
      "praise": 6459,
      "advance": 6460,
      "goooood": 6461,
      "37": 6462,
      "kon": 6463,
      "unlimited": 6464,
      "canad": 6465,
      "urge": 6466,
      "ffles": 6467,
      "para": 6468,
      "fected": 6469,
      "purse": 6470,
      "royal": 6471,
      "refreshing": 6472,
      "development": 6473,
      "tournament": 6474,
      "amsterdam": 6475,
      "dork": 6476,
      "hence": 6477,
      "ays": 6478,
      "among": 6479,
      "unexpected": 6480,
      "tools": 6481,
      "shoulders": 6482,
      "trips": 6483,
      "display": 6484,
      "eeep": 6485,
      "legit": 6486,
      "eurovision": 6487,
      "basement": 6488,
      "tempor": 6489,
      "dangerous": 6490,
      "aj": 6491,
      "glu": 6492,
      "lur": 6493,
      "nate": 6494,
      "poet": 6495,
      "slum": 6496,
      "reamed": 6497,
      "passes": 6498,
      "2000": 6499,
      "eyed": 6500,
      "childhood": 6501,
      "gigs": 6502,
      "crossing": 6503,
      "bonus": 6504,
      "ronic": 6505,
      "necessary": 6506,
      "n1": 6507,
      "yan": 6508,
      "aries": 6509,
      "mod": 6510,
      "taught": 6511,
      "torture": 6512,
      "painted": 6513,
      "webcam": 6514,
      "strike": 6515,
      "earthquake": 6516,
      "recogni": 6517,
      "delivered": 6518,
      "immedi": 6519,
      "divorce": 6520,
      "surprisingly": 6521,
      "cad": 6522,
      "hoe": 6523,
      "workshop": 6524,
      "constru": 6525,
      "acou": 6526,
      "letters": 6527,
      "photoshoot": 6528,
      "handsome": 6529,
      "temper": 6530,
      "bullshit": 6531,
      "frame": 6532,
      "wheres": 6533,
      "98": 6534,
      "dim": 6535,
      "fus": 6536,
      "kl": 6537,
      "tink": 6538,
      "orders": 6539,
      "tiger": 6540,
      "nighter": 6541,
      "firm": 6542,
      "prize": 6543,
      "suspe": 6544,
      "knees": 6545,
      "electric": 6546,
      "ashamed": 6547,
      "opposite": 6548,
      "marriage": 6549,
      "iremember": 6550,
      "kath": 6551,
      "stood": 6552,
      "tore": 6553,
      "recess": 6554,
      "ggers": 6555,
      "20th": 6556,
      "182": 6557,
      "ahhhhhh": 6558,
      "physical": 6559,
      "houses": 6560,
      "michigan": 6561,
      "beatles": 6562,
      "whale": 6563,
      "dissapointed": 6564,
      "cheaper": 6565,
      ";:": 6566,
      "oured": 6567,
      "rocket": 6568,
      "decor": 6569,
      "decisions": 6570,
      "blanket": 6571,
      "uff": 6572,
      "indones": 6573,
      "hols": 6574,
      "withdra": 6575,
      "bbie": 6576,
      "surround": 6577,
      "swag": 6578,
      "jumped": 6579,
      "hilton": 6580,
      "inge": 6581,
      "upcoming": 6582,
      "cheering": 6583,
      "luke": 6584,
      "housework": 6585,
      "relaxed": 6586,
      "19th": 6587,
      "latte": 6588,
      "ironing": 6589,
      "liverpool": 6590,
      "jeez": 6591,
      "ahahaha": 6592,
      "mim": 6593,
      "rb": 6594,
      "wreck": 6595,
      "gov": 6596,
      "feeding": 6597,
      "mann": 6598,
      "jewel": 6599,
      "views": 6600,
      "deadline": 6601,
      "interviews": 6602,
      "necklace": 6603,
      "inspiring": 6604,
      "600": 6605,
      "85": 6606,
      "meg": 6607,
      "amber": 6608,
      "roger": 6609,
      "lag": 6610,
      "halfway": 6611,
      "occas": 6612,
      "bradie": 6613,
      "greetings": 6614,
      "clipse": 6615,
      "gaming": 6616,
      "global": 6617,
      "adium": 6618,
      "karaoke": 6619,
      "cate": 6620,
      "lg": 6621,
      "erm": 6622,
      "hammer": 6623,
      "bears": 6624,
      "lion": 6625,
      "ria": 6626,
      "dean": 6627,
      "broo": 6628,
      "forest": 6629,
      "oool": 6630,
      "bump": 6631,
      "prime": 6632,
      "korea": 6633,
      "tetris": 6634,
      "mw": 6635,
      "zu": 6636,
      "thick": 6637,
      "lecture": 6638,
      "loll": 6639,
      "aland": 6640,
      "unbeliev": 6641,
      "terms": 6642,
      "racing": 6643,
      "pai": 6644,
      "diam": 6645,
      "ughhhh": 6646,
      "albums": 6647,
      "nurse": 6648,
      "l8": 6649,
      "ome": 6650,
      "coin": 6651,
      "weekly": 6652,
      "nyt": 6653,
      "syty": 6654,
      "drops": 6655,
      "patience": 6656,
      "crashes": 6657,
      "spoiled": 6658,
      "accepted": 6659,
      "advantage": 6660,
      "volleyball": 6661,
      "familiar": 6662,
      "dre": 6663,
      "atly": 6664,
      "ading": 6665,
      "lore": 6666,
      "dell": 6667,
      "boards": 6668,
      "spen": 6669,
      "cony": 6670,
      "slam": 6671,
      "value": 6672,
      "strength": 6673,
      "templ": 6674,
      "attacked": 6675,
      "impressive": 6676,
      "funniest": 6677,
      "stunning": 6678,
      "acoustic": 6679,
      "rl": 6680,
      "tamp": 6681,
      "anth": 6682,
      "wimble": 6683,
      "rabbit": 6684,
      "poem": 6685,
      "factor": 6686,
      "derby": 6687,
      "actor": 6688,
      "minor": 6689,
      "horses": 6690,
      "worrying": 6691,
      "brandon": 6692,
      "aut": 6693,
      "kni": 6694,
      "itation": 6695,
      "novel": 6696,
      "aside": 6697,
      "beating": 6698,
      "ripped": 6699,
      "spac": 6700,
      "rumor": 6701,
      "earn": 6702,
      "bestest": 6703,
      "tragic": 6704,
      "douche": 6705,
      "16th": 6706,
      "jesse": 6707,
      "georgia": 6708,
      "bastard": 6709,
      "bracelet": 6710,
      "eclipse": 6711,
      "inte": 6712,
      "stats": 6713,
      "hulu": 6714,
      "disappear": 6715,
      "blown": 6716,
      "vast": 6717,
      "150": 6718,
      "visited": 6719,
      "guna": 6720,
      "wkend": 6721,
      "experien": 6722,
      "nigga": 6723,
      "appropriate": 6724,
      "sytycd": 6725,
      "wimbledon": 6726,
      "mand": 6727,
      "refle": 6728,
      "ayay": 6729,
      "goodluck": 6730,
      "offs": 6731,
      "compared": 6732,
      "cycling": 6733,
      "signs": 6734,
      "deserves": 6735,
      "articles": 6736,
      "dutch": 6737,
      "continues": 6738,
      "effects": 6739,
      "65": 6740,
      "pand": 6741,
      "stab": 6742,
      "sept": 6743,
      "naps": 6744,
      "peaceful": 6745,
      "haters": 6746,
      "balcony": 6747,
      "llllllll": 6748,
      "becca": 6749,
      "gna": 6750,
      "ninten": 6751,
      "wut": 6752,
      "eel": 6753,
      "gos": 6754,
      "wif": 6755,
      "rides": 6756,
      "usive": 6757,
      "lasted": 6758,
      "mani": 6759,
      "damage": 6760,
      "rolled": 6761,
      "instant": 6762,
      "purchas": 6763,
      "suggestion": 6764,
      "cart": 6765,
      "dur": 6766,
      "pere": 6767,
      "hectic": 6768,
      "outing": 6769,
      "exten": 6770,
      "funn": 6771,
      "asshole": 6772,
      "discover": 6773,
      "sinus": 6774,
      "rrrrr": 6775,
      "crime": 6776,
      "lens": 6777,
      "levels": 6778,
      "twas": 6779,
      "tied": 6780,
      "therefore": 6781,
      "housewives": 6782,
      "yaay": 6783,
      "tommorrow": 6784,
      "solved": 6785,
      "batter": 6786,
      "yipp": 6787,
      "autograph": 6788,
      "announced": 6789,
      "discuss": 6790,
      "constantly": 6791,
      "canadian": 6792,
      "cba": 6793,
      "mandy": 6794,
      "hoped": 6795,
      "unit": 6796,
      "covers": 6797,
      "spon": 6798,
      "portland": 6799,
      "britains": 6800,
      "professional": 6801,
      "2pm": 6802,
      "swell": 6803,
      "uck": 6804,
      "reward": 6805,
      "beloved": 6806,
      "jogging": 6807,
      "vibes": 6808,
      "amazingly": 6809,
      "malay": 6810,
      "australian": 6811,
      "neighborhood": 6812,
      "3pm": 6813,
      "bg": 6814,
      "galler": 6815,
      "nit": 6816,
      "string": 6817,
      "nomin": 6818,
      "sem": 6819,
      "propo": 6820,
      "indust": 6821,
      "shakes": 6822,
      "aug": 6823,
      "sighs": 6824,
      "naman": 6825,
      "tornado": 6826,
      "pussy": 6827,
      "cen": 6828,
      "csi": 6829,
      "git": 6830,
      "doh": 6831,
      "greg": 6832,
      "servers": 6833,
      "mars": 6834,
      "county": 6835,
      "smash": 6836,
      "crib": 6837,
      "bonfire": 6838,
      "balance": 6839,
      "montreal": 6840,
      "rugby": 6841,
      "dw": 6842,
      "reference": 6843,
      "costu": 6844,
      "bobby": 6845,
      "saf": 6846,
      "scrubs": 6847,
      "bush": 6848,
      "worthy": 6849,
      "websites": 6850,
      "gardening": 6851,
      "evry": 6852,
      "walls": 6853,
      "strict": 6854,
      "replacement": 6855,
      "piercing": 6856,
      "42": 6857,
      "knack": 6858,
      "whel": 6859,
      "ining": 6860,
      "strip": 6861,
      "allll": 6862,
      "weir": 6863,
      "colo": 6864,
      "raise": 6865,
      "maine": 6866,
      "agne": 6867,
      "props": 6868,
      "tyler": 6869,
      "listed": 6870,
      "coldplay": 6871,
      "pork": 6872,
      "celeb": 6873,
      "supporting": 6874,
      "injured": 6875,
      "vp": 6876,
      "relie": 6877,
      "orient": 6878,
      "medi": 6879,
      "tify": 6880,
      "doggy": 6881,
      "nathan": 6882,
      "president": 6883,
      "daught": 6884,
      "streets": 6885,
      "dolls": 6886,
      "lambert": 6887,
      "roommate": 6888,
      "nintendo": 6889,
      "g1": 6890,
      "verizon": 6891,
      "wasting": 6892,
      "spar": 6893,
      "sunset": 6894,
      "sunbathing": 6895,
      "supp": 6896,
      "drinkin": 6897,
      "fitness": 6898,
      "attending": 6899,
      "channels": 6900,
      "invent": 6901,
      "renew": 6902,
      "wiz": 6903,
      "rawr": 6904,
      "ender": 6905,
      "shane": 6906,
      "sue": 6907,
      "amazed": 6908,
      "chose": 6909,
      "hhhhhh": 6910,
      "seasons": 6911,
      "banned": 6912,
      "designer": 6913,
      "economy": 6914,
      "tol": 6915,
      "tomoz": 6916,
      "refuse": 6917,
      "ordin": 6918,
      "soap": 6919,
      "cod": 6920,
      "cane": 6921,
      "bold": 6922,
      "twitterers": 6923,
      "disaster": 6924,
      "blowing": 6925,
      "pissing": 6926,
      "kittens": 6927,
      "gus": 6928,
      "heee": 6929,
      "tooooo": 6930,
      "iser": 6931,
      "vend": 6932,
      "vegan": 6933,
      "myweakness": 6934,
      "coding": 6935,
      "some1": 6936,
      "foc": 6937,
      "shaking": 6938,
      "cranky": 6939,
      "stressing": 6940,
      "eeeeeeeeeeeeeeee": 6941,
      "quarter": 6942,
      "7pm": 6943,
      "wierd": 6944,
      "unemploy": 6945,
      "ples": 6946,
      "silent": 6947,
      "supper": 6948,
      "maria": 6949,
      "crystal": 6950,
      "dane": 6951,
      "graphics": 6952,
      "allergy": 6953,
      "ego": 6954,
      "lush": 6955,
      "pb": 6956,
      "essa": 6957,
      "dose": 6958,
      "applied": 6959,
      "damned": 6960,
      "jenny": 6961,
      "sprint": 6962,
      "4pm": 6963,
      "ffa": 6964,
      "w00": 6965,
      "yl": 6966,
      "beard": 6967,
      "untill": 6968,
      "rian": 6969,
      "veron": 6970,
      "mock": 6971,
      "spicy": 6972,
      "consist": 6973,
      "whos": 6974,
      "skies": 6975,
      "killers": 6976,
      "southern": 6977,
      "uhm": 6978,
      "adopt": 6979,
      "stalk": 6980,
      "streaming": 6981,
      "breeze": 6982,
      "romantic": 6983,
      "internship": 6984,
      "mour": 6985,
      "psp": 6986,
      "orn": 6987,
      "veni": 6988,
      "ques": 6989,
      "twat": 6990,
      "taxi": 6991,
      "weed": 6992,
      "tutori": 6993,
      "printer": 6994,
      "dram": 6995,
      "handy": 6996,
      "warming": 6997,
      "trains": 6998,
      "fairly": 6999,
      "mmmmmm": 7000,
      "rays": 7001,
      "passport": 7002,
      "crushed": 7003,
      "adventures": 7004,
      "apologize": 7005,
      "atlan": 7006,
      "finds": 7007,
      "13th": 7008,
      "leading": 7009,
      "footy": 7010,
      "muscles": 7011,
      "calendar": 7012,
      "relief": 7013,
      "89": 7014,
      "lex": 7015,
      "forums": 7016,
      "donut": 7017,
      "example": 7018,
      "perth": 7019,
      "telly": 7020,
      "dddddddd": 7021,
      "desperately": 7022,
      "smoothie": 7023,
      "lobster": 7024,
      "wes": 7025,
      "inch": 7026,
      "sole": 7027,
      "belt": 7028,
      "wht": 7029,
      "peach": 7030,
      "popped": 7031,
      "polar": 7032,
      "knowledge": 7033,
      "saddest": 7034,
      "fron": 7035,
      "powers": 7036,
      "stalking": 7037,
      "busters": 7038,
      "occasion": 7039,
      "88": 7040,
      "bnp": 7041,
      "rm": 7042,
      "sessions": 7043,
      "yas": 7044,
      "lions": 7045,
      "owl": 7046,
      "expi": 7047,
      "sack": 7048,
      "scoo": 7049,
      "fired": 7050,
      "sonny": 7051,
      "chances": 7052,
      "spinning": 7053,
      "edinburgh": 7054,
      "combination": 7055,
      "skirt": 7056,
      "39": 7057,
      "itouch": 7058,
      "jd": 7059,
      "rc": 7060,
      "roid": 7061,
      "waffle": 7062,
      "erson": 7063,
      "shell": 7064,
      "mush": 7065,
      "networking": 7066,
      "burri": 7067,
      "2008": 7068,
      "brows": 7069,
      "?!?!?!": 7070,
      "notebook": 7071,
      "groups": 7072,
      "commercials": 7073,
      "average": 7074,
      "backs": 7075,
      "marsis": 7076,
      "slide": 7077,
      "belgi": 7078,
      "paradise": 7079,
      "06": 7080,
      "athan": 7081,
      "aire": 7082,
      "dah": 7083,
      "tg": 7084,
      "thesis": 7085,
      "stamp": 7086,
      "dayy": 7087,
      "iry": 7088,
      "tac": 7089,
      "needing": 7090,
      "dial": 7091,
      "minim": 7092,
      "triple": 7093,
      "shadow": 7094,
      "jackie": 7095,
      "culture": 7096,
      "championship": 7097,
      "brooklyn": 7098,
      "marsiscoming": 7099,
      "96": 7100,
      "lean": 7101,
      "ades": 7102,
      "rode": 7103,
      "served": 7104,
      "skill": 7105,
      "chicks": 7106,
      "charged": 7107,
      "campa": 7108,
      "closest": 7109,
      "garlic": 7110,
      "flix": 7111,
      "records": 7112,
      "brazili": 7113,
      "gentle": 7114,
      "seniors": 7115,
      "tml": 7116,
      "francisco": 7117,
      "hut": 7118,
      "kool": 7119,
      "keen": 7120,
      "enger": 7121,
      "docs": 7122,
      "momm": 7123,
      "icure": 7124,
      "device": 7125,
      "stern": 7126,
      "breathing": 7127,
      "worlds": 7128,
      "chili": 7129,
      "chillax": 7130,
      "assume": 7131,
      "rarely": 7132,
      "particip": 7133,
      "glow": 7134,
      "kee": 7135,
      "insu": 7136,
      "arily": 7137,
      "alll": 7138,
      "baha": 7139,
      "concept": 7140,
      "yessss": 7141,
      "madness": 7142,
      "?!?!?": 7143,
      "spilled": 7144,
      "publish": 7145,
      "figuring": 7146,
      "withdrawal": 7147,
      "atlantic": 7148,
      "47": 7149,
      "db": 7150,
      "fie": 7151,
      "jill": 7152,
      "tut": 7153,
      "thon": 7154,
      "chie": 7155,
      "amusing": 7156,
      "motion": 7157,
      "poly": 7158,
      "gree": 7159,
      "friendship": 7160,
      "lightening": 7161,
      "concerned": 7162,
      "smiley": 7163,
      "spotify": 7164,
      "gifts": 7165,
      "ignored": 7166,
      "mous": 7167,
      "vu": 7168,
      "yn": 7169,
      "inc": 7170,
      "beck": 7171,
      "belle": 7172,
      "weee": 7173,
      "hurley": 7174,
      "drums": 7175,
      "blogger": 7176,
      "elbow": 7177,
      "stranger": 7178,
      "paperwork": 7179,
      "gggggggg": 7180,
      "captain": 7181,
      "thrilled": 7182,
      "education": 7183,
      "bamboozle": 7184,
      "pj": 7185,
      "rer": 7186,
      "enna": 7187,
      "ashi": 7188,
      "cops": 7189,
      "worship": 7190,
      "twittered": 7191,
      "showers": 7192,
      "ansas": 7193,
      "summertime": 7194,
      "handed": 7195,
      "venge": 7196,
      "grilled": 7197,
      "indiana": 7198,
      "'?": 7199,
      "jared": 7200,
      "wound": 7201,
      "wom": 7202,
      "yt": 7203,
      "intell": 7204,
      "thi": 7205,
      "metho": 7206,
      "upstairs": 7207,
      "tease": 7208,
      "wales": 7209,
      "standard": 7210,
      "quila": 7211,
      "cases": 7212,
      "ridiculously": 7213,
      "artists": 7214,
      "daisies": 7215,
      "recession": 7216,
      ".:": 7217,
      "07": 7218,
      "hk": 7219,
      "mk": 7220,
      "uary": 7221,
      "wrest": 7222,
      "ints": 7223,
      "itas": 7224,
      "nov": 7225,
      "belive": 7226,
      "boobs": 7227,
      "tram": 7228,
      "zealand": 7229,
      "drives": 7230,
      "colorado": 7231,
      "switched": 7232,
      "css": 7233,
      "chy": 7234,
      "exter": 7235,
      "lucy": 7236,
      "postpon": 7237,
      "soooooooo": 7238,
      "layin": 7239,
      "twisted": 7240,
      "former": 7241,
      "snoo": 7242,
      "slip": 7243,
      "dryer": 7244,
      "gained": 7245,
      "convinced": 7246,
      "muffins": 7247,
      "hiccups": 7248,
      "perez": 7249,
      "opra": 7250,
      "eet": 7251,
      "bebo": 7252,
      "logged": 7253,
      "ribs": 7254,
      "suic": 7255,
      "bol": 7256,
      "pole": 7257,
      "redu": 7258,
      "brave": 7259,
      "cheesy": 7260,
      "direction": 7261,
      "buttons": 7262,
      "discussion": 7263,
      "humidity": 7264,
      "politics": 7265,
      "pearl": 7266,
      "wendy": 7267,
      "lefto": 7268,
      "immediately": 7269,
      "bry": 7270,
      "dood": 7271,
      "hal": 7272,
      "youuuu": 7273,
      "newest": 7274,
      "mau": 7275,
      "enty": 7276,
      "overcast": 7277,
      "0000": 7278,
      "frog": 7279,
      "generally": 7280,
      "pointless": 7281,
      "pitts": 7282,
      "material": 7283,
      "bane": 7284,
      "kc": 7285,
      "stere": 7286,
      "steven": 7287,
      "hola": 7288,
      "arest": 7289,
      "napping": 7290,
      "tequila": 7291,
      "pace": 7292,
      "curly": 7293,
      "showered": 7294,
      "wwdc": 7295,
      "slice": 7296,
      "european": 7297,
      "looove": 7298,
      "bou": 7299,
      "melon": 7300,
      "dome": 7301,
      "twitterfon": 7302,
      "hibit": 7303,
      "rents": 7304,
      "salsa": 7305,
      "salvation": 7306,
      "burns": 7307,
      "teams": 7308,
      "production": 7309,
      "thrown": 7310,
      "summers": 7311,
      "sweaty": 7312,
      "bagel": 7313,
      "shifts": 7314,
      "drunken": 7315,
      "jeremy": 7316,
      "hbo": 7317,
      "mask": 7318,
      "oat": 7319,
      "anime": 7320,
      "tomoro": 7321,
      "mai": 7322,
      "ota": 7323,
      "poll": 7324,
      "newcastle": 7325,
      "muah": 7326,
      "joint": 7327,
      "overwhel": 7328,
      "spears": 7329,
      "gents": 7330,
      "freaked": 7331,
      "oooooooooo": 7332,
      "goose": 7333,
      "grandmother": 7334,
      "fiction": 7335,
      "expert": 7336,
      "understood": 7337,
      "rette": 7338,
      "correctly": 7339,
      "econom": 7340,
      "h1n1": 7341,
      "cone": 7342,
      "ih": 7343,
      "nbc": 7344,
      "oak": 7345,
      "arrr": 7346,
      "peas": 7347,
      "mikey": 7348,
      "leather": 7349,
      "booze": 7350,
      "heheh": 7351,
      "depression": 7352,
      "ninja": 7353,
      "pushed": 7354,
      "hmph": 7355,
      "motorcycle": 7356,
      "knackered": 7357,
      "oprah": 7358,
      "wp": 7359,
      "wre": 7360,
      "yaa": 7361,
      "influ": 7362,
      "erin": 7363,
      "beside": 7364,
      "upper": 7365,
      "ception": 7366,
      "nikki": 7367,
      "offered": 7368,
      "hunny": 7369,
      "highlight": 7370,
      "unique": 7371,
      "models": 7372,
      "recommendations": 7373,
      "ceremony": 7374,
      "pixar": 7375,
      "aded": 7376,
      "keith": 7377,
      "enda": 7378,
      "shri": 7379,
      "mails": 7380,
      "jonathan": 7381,
      "numb": 7382,
      "attitude": 7383,
      "speakers": 7384,
      "engage": 7385,
      "cabin": 7386,
      "rupt": 7387,
      "carolina": 7388,
      "04": 7389,
      "slap": 7390,
      "ined": 7391,
      "hail": 7392,
      "login": 7393,
      "uns": 7394,
      "uncomfortable": 7395,
      "cola": 7396,
      "phill": 7397,
      "zzi": 7398,
      "cubs": 7399,
      "visible": 7400,
      "smashed": 7401,
      "draft": 7402,
      "technic": 7403,
      "village": 7404,
      "apologies": 7405,
      "transport": 7406,
      "lemonade": 7407,
      "penguins": 7408,
      "pid": 7409,
      "haaa": 7410,
      "doggie": 7411,
      "waffles": 7412,
      "funky": 7413,
      "ously": 7414,
      "mans": 7415,
      "giveaway": 7416,
      "netflix": 7417,
      "kenny": 7418,
      "tommy": 7419,
      "xoxox": 7420,
      "reminding": 7421,
      "melissa": 7422,
      "recommended": 7423,
      "bottles": 7424,
      "loveee": 7425,
      "mystery": 7426,
      "alo": 7427,
      "cp": 7428,
      "flaw": 7429,
      "imo": 7430,
      "leeds": 7431,
      "oli": 7432,
      "tomo": 7433,
      "ittle": 7434,
      "arizon": 7435,
      "sheep": 7436,
      "tails": 7437,
      "fax": 7438,
      "contempl": 7439,
      "mickey": 7440,
      "tweeties": 7441,
      "harsh": 7442,
      "hotter": 7443,
      "vaca": 7444,
      "simps": 7445,
      "porch": 7446,
      "basic": 7447,
      "sheet": 7448,
      "alternative": 7449,
      "batch": 7450,
      "cm": 7451,
      "pul": 7452,
      "ooc": 7453,
      "twenty": 7454,
      "iel": 7455,
      "prove": 7456,
      "apples": 7457,
      "actress": 7458,
      "11pm": 7459,
      "bene": 7460,
      "climbing": 7461,
      "pirate": 7462,
      "gcse": 7463,
      "daughters": 7464,
      "rev": 7465,
      "stil": 7466,
      "liber": 7467,
      "shite": 7468,
      "excl": 7469,
      "cracking": 7470,
      "setup": 7471,
      "addition": 7472,
      "juli": 7473,
      "ios": 7474,
      "owned": 7475,
      "unfortunate": 7476,
      "hahha": 7477,
      "belated": 7478,
      "explode": 7479,
      "ditto": 7480,
      "daisy": 7481,
      "caramel": 7482,
      "bikini": 7483,
      "w00t": 7484,
      "technically": 7485,
      "kent": 7486,
      "ral": 7487,
      "informed": 7488,
      "anxi": 7489,
      "reset": 7490,
      "outlook": 7491,
      "suits": 7492,
      "pathy": 7493,
      "crawl": 7494,
      "shared": 7495,
      "sings": 7496,
      "sons": 7497,
      "boxing": 7498,
      "archie": 7499,
      "fireworks": 7500,
      "spoon": 7501,
      "bruised": 7502,
      "settled": 7503,
      "holland": 7504,
      "matthew": 7505,
      "campaign": 7506,
      "kfc": 7507,
      "anas": 7508,
      "default": 7509,
      "yest": 7510,
      "ified": 7511,
      "tack": 7512,
      "mister": 7513,
      "bub": 7514,
      "hub": 7515,
      "trace": 7516,
      "voc": 7517,
      "mcflyfor": 7518,
      "spots": 7519,
      "williams": 7520,
      "exhausting": 7521,
      "determin": 7522,
      "tampa": 7523,
      "49": 7524,
      "alie": 7525,
      "lane": 7526,
      "tomm": 7527,
      "reve": 7528,
      "teas": 7529,
      "contain": 7530,
      "yeahhh": 7531,
      "carrad": 7532,
      "blocks": 7533,
      "counts": 7534,
      "teddy": 7535,
      "aku": 7536,
      "mature": 7537,
      "calories": 7538,
      "ordering": 7539,
      "anticip": 7540,
      "philo": 7541,
      "peep": 7542,
      "wick": 7543,
      "fund": 7544,
      "shocking": 7545,
      "cord": 7546,
      "medical": 7547,
      "barbe": 7548,
      "recei": 7549,
      "mistakes": 7550,
      "lamb": 7551,
      "farewell": 7552,
      "indonesia": 7553,
      "postponed": 7554,
      "1pm": 7555,
      "awaiting": 7556,
      "pong": 7557,
      "yuk": 7558,
      "gokey": 7559,
      "lorette": 7560,
      "ante": 7561,
      "bran": 7562,
      "ggage": 7563,
      "stuffy": 7564,
      "gnite": 7565,
      "clicked": 7566,
      "charm": 7567,
      "hype": 7568,
      "queue": 7569,
      "conversations": 7570,
      "announcement": 7571,
      "particularly": 7572,
      "spongebob": 7573,
      "spencer": 7574,
      "carradine": 7575,
      "das": 7576,
      "grain": 7577,
      "olive": 7578,
      "tling": 7579,
      "vag": 7580,
      "towel": 7581,
      "errr": 7582,
      "whoops": 7583,
      "jog": 7584,
      "sleepin": 7585,
      "cheat": 7586,
      "perman": 7587,
      "scor": 7588,
      "sweetest": 7589,
      "aaaaaaa": 7590,
      "julie": 7591,
      "curl": 7592,
      "charging": 7593,
      "strate": 7594,
      "addict": 7595,
      "flavor": 7596,
      "entirely": 7597,
      "sophie": 7598,
      "potatoes": 7599,
      "procrastinating": 7600,
      "arizona": 7601,
      "gnight": 7602,
      "jac": 7603,
      "samp": 7604,
      "ym": 7605,
      "lewis": 7606,
      "advis": 7607,
      "weeds": 7608,
      "iley": 7609,
      "enjoyable": 7610,
      "cue": 7611,
      "freeze": 7612,
      "heartbroken": 7613,
      "solve": 7614,
      "ooooooooo": 7615,
      "gardens": 7616,
      "stretch": 7617,
      "sticky": 7618,
      "disappointment": 7619,
      "aaaaaaaaaaaaaaaa": 7620,
      "snuggle": 7621,
      "survivor": 7622,
      "gawd": 7623,
      "05": 7624,
      "210": 7625,
      "cage": 7626,
      "dash": 7627,
      "nm": 7628,
      "vint": 7629,
      "lovers": 7630,
      "niley": 7631,
      "newspa": 7632,
      "wishin": 7633,
      "shore": 7634,
      "carni": 7635,
      "drool": 7636,
      "lunchtime": 7637,
      "understanding": 7638,
      "kitties": 7639,
      "experiment": 7640,
      "ditions": 7641,
      "anthony": 7642,
      "mcflyforgermany": 7643,
      "egy": 7644,
      "injury": 7645,
      "resto": 7646,
      "melo": 7647,
      "veggie": 7648,
      "bras": 7649,
      "realizing": 7650,
      "jenni": 7651,
      "required": 7652,
      "gall": 7653,
      "ihop": 7654,
      "jin": 7655,
      "plot": 7656,
      "meow": 7657,
      "soy": 7658,
      "aling": 7659,
      "rier": 7660,
      "raging": 7661,
      "quer": 7662,
      "shhh": 7663,
      "ksha": 7664,
      "folio": 7665,
      "happily": 7666,
      "disease": 7667,
      "blocking": 7668,
      "killin": 7669,
      "rocky": 7670,
      "vacay": 7671,
      "scored": 7672,
      "smaller": 7673,
      "digging": 7674,
      "spelled": 7675,
      "mountains": 7676,
      "kok": 7677,
      "uf": 7678,
      "vee": 7679,
      "yip": 7680,
      "cram": 7681,
      "crum": 7682,
      "symp": 7683,
      "designs": 7684,
      "scratched": 7685,
      "paula": 7686,
      "pineapple": 7687,
      "tokyo": 7688,
      "cies": 7689,
      "ich": 7690,
      "kins": 7691,
      "mma": 7692,
      "rss": 7693,
      "no1": 7694,
      "android": 7695,
      "admin": 7696,
      "mot": 7697,
      "lator": 7698,
      "urself": 7699,
      "ssa": 7700,
      "sphere": 7701,
      "betty": 7702,
      "pedi": 7703,
      "risk": 7704,
      "ruining": 7705,
      "toothache": 7706,
      "447": 7707,
      "hir": 7708,
      "kong": 7709,
      "ova": 7710,
      "stum": 7711,
      "asis": 7712,
      "shan": 7713,
      "todayy": 7714,
      "homesick": 7715,
      "comics": 7716,
      "twitting": 7717,
      "grin": 7718,
      "nerves": 7719,
      "yyyyyy": 7720,
      "ports": 7721,
      "govern": 7722,
      "mainly": 7723,
      "auntie": 7724,
      "essays": 7725,
      "operation": 7726,
      "mosquito": 7727,
      "encourage": 7728,
      "audience": 7729,
      "achieve": 7730,
      "ura": 7731,
      "robe": 7732,
      "donate": 7733,
      "yell": 7734,
      "any1": 7735,
      "missy": 7736,
      "wax": 7737,
      "phr": 7738,
      "betta": 7739,
      "divine": 7740,
      "choices": 7741,
      "burst": 7742,
      "remembering": 7743,
      "flops": 7744,
      "require": 7745,
      "sprink": 7746,
      "thirsty": 7747,
      "threat": 7748,
      "gooo": 7749,
      "ology": 7750,
      "pag": 7751,
      "notific": 7752,
      "leo": 7753,
      "ams": 7754,
      "heidi": 7755,
      "unlike": 7756,
      "unpacking": 7757,
      "molly": 7758,
      "icas": 7759,
      "yelling": 7760,
      "coulda": 7761,
      "monica": 7762,
      "disk": 7763,
      "drake": 7764,
      "witness": 7765,
      "healing": 7766,
      "heehee": 7767,
      "promotion": 7768,
      "destroyed": 7769,
      "pokemon": 7770,
      "vintage": 7771,
      "fag": 7772,
      "kak": 7773,
      "mwah": 7774,
      "anie": 7775,
      "hometown": 7776,
      "roots": 7777,
      "aska": 7778,
      "filter": 7779,
      "addicting": 7780,
      "extended": 7781,
      "biscuits": 7782,
      "brooke": 7783,
      "anxiety": 7784,
      "5k": 7785,
      "kr": 7786,
      "looooo": 7787,
      "tp": 7788,
      "tz": 7789,
      "adjust": 7790,
      "wayne": 7791,
      "hike": 7792,
      "lighting": 7793,
      "pilot": 7794,
      "valid": 7795,
      "11am": 7796,
      "touring": 7797,
      "dressing": 7798,
      "larry": 7799,
      "allows": 7800,
      "desert": 7801,
      "lifetime": 7802,
      "contemplating": 7803,
      "haw": 7804,
      "asse": 7805,
      "shares": 7806,
      "visitor": 7807,
      "dino": 7808,
      "chillen": 7809,
      "ridge": 7810,
      "uuuuu": 7811,
      "russian": 7812,
      "requests": 7813,
      "guests": 7814,
      "gahh": 7815,
      "html": 7816,
      "nay": 7817,
      "slack": 7818,
      "anal": 7819,
      "pest": 7820,
      "ggas": 7821,
      "lottery": 7822,
      "12th": 7823,
      "stav": 7824,
      "champagne": 7825,
      "arrange": 7826,
      "stealing": 7827,
      "activity": 7828,
      "constant": 7829,
      "dedicated": 7830,
      "modern": 7831,
      "pepsi": 7832,
      "proposal": 7833,
      "pittsburgh": 7834,
      "700": 7835,
      "ahahah": 7836,
      "hater": 7837,
      "ients": 7838,
      "lers": 7839,
      "thur": 7840,
      "yous": 7841,
      "kell": 7842,
      "moi": 7843,
      "mow": 7844,
      "rights": 7845,
      "typo": 7846,
      "girlfriends": 7847,
      "eats": 7848,
      "dairy": 7849,
      "boohoo": 7850,
      "cuppa": 7851,
      "rising": 7852,
      "fortune": 7853,
      "milksha": 7854,
      "guns": 7855,
      "wrapped": 7856,
      "religion": 7857,
      "sql": 7858,
      "stewart": 7859,
      "aqu": 7860,
      "bond": 7861,
      "gps": 7862,
      "oul": 7863,
      "relay": 7864,
      "stain": 7865,
      "tier": 7866,
      "goodies": 7867,
      "sprained": 7868,
      "convention": 7869,
      "grat": 7870,
      "blend": 7871,
      "serving": 7872,
      "trial": 7873,
      "compare": 7874,
      "element": 7875,
      "election": 7876,
      "sandwi": 7877,
      "writers": 7878,
      "multiply": 7879,
      "nursing": 7880,
      "brazilian": 7881,
      "wand": 7882,
      "oral": 7883,
      "chloe": 7884,
      "heath": 7885,
      "whirl": 7886,
      "mahon": 7887,
      "quet": 7888,
      "overslept": 7889,
      "brut": 7890,
      "ables": 7891,
      "11th": 7892,
      "opard": 7893,
      "crimin": 7894,
      "victory": 7895,
      "80s": 7896,
      "broadband": 7897,
      "television": 7898,
      "swap": 7899,
      "knot": 7900,
      "ov": 7901,
      "vari": 7902,
      "zach": 7903,
      "restore": 7904,
      "stadium": 7905,
      "nostal": 7906,
      "below": 7907,
      "seo": 7908,
      "cott": 7909,
      "devast": 7910,
      "phon": 7911,
      "sunscreen": 7912,
      "woulda": 7913,
      "omgosh": 7914,
      "winners": 7915,
      "treating": 7916,
      "brigh": 7917,
      "ssssss": 7918,
      "adobe": 7919,
      "promote": 7920,
      "cartoon": 7921,
      "squirrel": 7922,
      "250": 7923,
      "cya": 7924,
      "dats": 7925,
      "fty": 7926,
      "tread": 7927,
      "uhhh": 7928,
      "tox": 7929,
      "revenge": 7930,
      "utner": 7931,
      "raised": 7932,
      "someones": 7933,
      "sac": 7934,
      "joel": 7935,
      "lastnight": 7936,
      "acct": 7937,
      "clothing": 7938,
      "stuffs": 7939,
      "volu": 7940,
      "weds": 7941,
      "brick": 7942,
      "xoxoxo": 7943,
      "blessing": 7944,
      "festiv": 7945,
      "deleting": 7946,
      "premier": 7947,
      "drain": 7948,
      "oaks": 7949,
      "tower": 7950,
      "returning": 7951,
      "retire": 7952,
      "morris": 7953,
      "howard": 7954,
      "yelled": 7955,
      "caused": 7956,
      "fuel": 7957,
      "item": 7958,
      "studied": 7959,
      "booking": 7960,
      "grades": 7961,
      "pudding": 7962,
      "patio": 7963,
      "upsetting": 7964,
      "drug": 7965,
      "skipping": 7966,
      "subscribe": 7967,
      "satisfied": 7968,
      "bachelorette": 7969,
      "46": 7970,
      "ela": 7971,
      "tomar": 7972,
      "bei": 7973,
      "amo": 7974,
      "bahaha": 7975,
      "suite": 7976,
      "grease": 7977,
      "byes": 7978,
      "paw": 7979,
      "abled": 7980,
      "tical": 7981,
      "batman": 7982,
      "touching": 7983,
      "lences": 7984,
      "dirt": 7985,
      "presso": 7986,
      "chasing": 7987,
      "upgraded": 7988,
      "industry": 7989,
      "hou": 7990,
      "oasis": 7991,
      "annie": 7992,
      "regents": 7993,
      "forth": 7994,
      "alert": 7995,
      "kewl": 7996,
      "riot": 7997,
      "faves": 7998,
      "exhibit": 7999,
      "sunrise": 8000,
      "steam": 8001,
      "posters": 8002,
      "sum1": 8003,
      "queens": 8004,
      "blister": 8005,
      "lifes": 8006,
      "virginia": 8007,
      "brisbane": 8008,
      "poisoning": 8009,
      "fwd": 8010,
      "technical": 8011,
      "yankees": 8012,
      "external": 8013,
      "phrase": 8014,
      "2mr": 8015,
      "bd": 8016,
      "cass": 8017,
      "ehh": 8018,
      "una": 8019,
      "ict": 8020,
      "poppin": 8021,
      "diag": 8022,
      "selfish": 8023,
      "clown": 8024,
      "bikes": 8025,
      "holds": 8026,
      "andyhurley": 8027,
      "noodle": 8028,
      "regardless": 8029,
      "electricity": 8030,
      "dere": 8031,
      "dms": 8032,
      "ez": 8033,
      "wooooo": 8034,
      "hamp": 8035,
      "envir": 8036,
      "tivo": 8037,
      "mocha": 8038,
      "anya": 8039,
      "happend": 8040,
      "sung": 8041,
      "ggles": 8042,
      "birming": 8043,
      "puke": 8044,
      "aud": 8045,
      "doug": 8046,
      "stration": 8047,
      "complex": 8048,
      "vacations": 8049,
      "rence": 8050,
      "command": 8051,
      "eleph": 8052,
      "annual": 8053,
      "spammers": 8054,
      "claire": 8055,
      "nanny": 8056,
      "practically": 8057,
      "false": 8058,
      "revolution": 8059,
      "isplayer": 8060,
      "canon": 8061,
      "neil": 8062,
      "baker": 8063,
      "sucking": 8064,
      "thang": 8065,
      "tah": 8066,
      "lols": 8067,
      "dylan": 8068,
      "glam": 8069,
      "viewed": 8070,
      "crab": 8071,
      "hottie": 8072,
      "30th": 8073,
      "opens": 8074,
      "trainer": 8075,
      "mcmahon": 8076,
      "lona": 8077,
      "www": 8078,
      "directly": 8079,
      "summit": 8080,
      "featured": 8081,
      "oatmeal": 8082,
      "government": 8083,
      "sandwiches": 8084,
      "brighton": 8085,
      "2g": 8086,
      "bart": 8087,
      "iphones": 8088,
      "yoo": 8089,
      "yar": 8090,
      "inner": 8091,
      "stit": 8092,
      "isra": 8093,
      "wassup": 8094,
      "bathe": 8095,
      "agent": 8096,
      "seee": 8097,
      "reads": 8098,
      "tomorrows": 8099,
      "buffa": 8100,
      "caring": 8101,
      "oldest": 8102,
      "biking": 8103,
      "chilled": 8104,
      "milton": 8105,
      "vanessa": 8106,
      "hono": 8107,
      "considered": 8108,
      "nooooooo": 8109,
      "attractive": 8110,
      "philosoph": 8111,
      "72": 8112,
      "77": 8113,
      "bcuz": 8114,
      "fk": 8115,
      "frow": 8116,
      "font": 8117,
      "mucho": 8118,
      "sleepless": 8119,
      "listers": 8120,
      "serv": 8121,
      "wondered": 8122,
      "netbook": 8123,
      "pire": 8124,
      "barce": 8125,
      "100th": 8126,
      "casa": 8127,
      "cinnam": 8128,
      "registered": 8129,
      "embarrassing": 8130,
      "condolences": 8131,
      "confirmation": 8132,
      "birmingham": 8133,
      "apa": 8134,
      "eps": 8135,
      "qq": 8136,
      "ati": 8137,
      "pple": 8138,
      "causing": 8139,
      "ohmy": 8140,
      "geon": 8141,
      "shown": 8142,
      "wherever": 8143,
      "pron": 8144,
      "marie": 8145,
      "cran": 8146,
      "iiiii": 8147,
      "snacks": 8148,
      "biotics": 8149,
      "secrets": 8150,
      "generation": 8151,
      "bruce": 8152,
      "cuddling": 8153,
      "shucks": 8154,
      "filipin": 8155,
      "temperature": 8156,
      "smack": 8157,
      "allllll": 8158,
      "weigh": 8159,
      "western": 8160,
      "icing": 8161,
      "fame": 8162,
      "fudge": 8163,
      "sleeee": 8164,
      "carl": 8165,
      "horrid": 8166,
      "internets": 8167,
      "stones": 8168,
      "programming": 8169,
      "stroke": 8170,
      "shades": 8171,
      "suspect": 8172,
      "costume": 8173,
      "shrimp": 8174,
      "carnival": 8175,
      "environ": 8176,
      "buffalo": 8177,
      "!'": 8178,
      "tc": 8179,
      "index": 8180,
      "theless": 8181,
      "orting": 8182,
      "itive": 8183,
      "isha": 8184,
      "hawk": 8185,
      "adul": 8186,
      "semin": 8187,
      "shann": 8188,
      "sees": 8189,
      "wayyy": 8190,
      "buds": 8191,
      "hiking": 8192,
      "cist": 8193,
      "shade": 8194,
      "chop": 8195,
      "frequ": 8196,
      "woooh": 8197,
      "looong": 8198,
      "director": 8199,
      "hoodie": 8200,
      "bangs": 8201,
      "circus": 8202,
      "specific": 8203,
      "scares": 8204,
      "reallly": 8205,
      "srry": 8206,
      "scription": 8207,
      "scenes": 8208,
      "construction": 8209,
      "gallery": 8210,
      "crip": 8211,
      "dump": 8212,
      "retail": 8213,
      "strea": 8214,
      "wight": 8215,
      "aline": 8216,
      "mains": 8217,
      "deer": 8218,
      "succ": 8219,
      "tak": 8220,
      "wakes": 8221,
      "ourselves": 8222,
      "lasts": 8223,
      "pero": 8224,
      "viet": 8225,
      "corpor": 8226,
      "cham": 8227,
      "choir": 8228,
      "ringing": 8229,
      "macs": 8230,
      "25th": 8231,
      "tttttttt": 8232,
      "celtics": 8233,
      "swedish": 8234,
      "granny": 8235,
      "balloon": 8236,
      "greece": 8237,
      "blisters": 8238,
      "iny": 8239,
      "relate": 8240,
      "stiff": 8241,
      "steel": 8242,
      "ases": 8243,
      "loan": 8244,
      "lyk": 8245,
      "abby": 8246,
      "contribut": 8247,
      "twitterific": 8248,
      "scrap": 8249,
      "portfolio": 8250,
      "valent": 8251,
      "blogtv": 8252,
      "comming": 8253,
      "footage": 8254,
      "flag": 8255,
      "snake": 8256,
      "springs": 8257,
      "bothering": 8258,
      "volunteer": 8259,
      "responsible": 8260,
      "companies": 8261,
      "describe": 8262,
      "stavros": 8263,
      "barcelona": 8264,
      "!:": 8265,
      "43": 8266,
      "aja": 8267,
      "eth": 8268,
      "kg": 8269,
      "snoring": 8270,
      "ativity": 8271,
      "sten": 8272,
      "mellow": 8273,
      "sewing": 8274,
      "endless": 8275,
      "lucas": 8276,
      "appet": 8277,
      "visa": 8278,
      "sends": 8279,
      "itching": 8280,
      ")))": 8281,
      "bruise": 8282,
      "kayla": 8283,
      "sheesh": 8284,
      "jailbreak": 8285,
      "diamond": 8286,
      "nana": 8287,
      "td": 8288,
      "stim": 8289,
      "addy": 8290,
      "height": 8291,
      "unfollowed": 8292,
      "icle": 8293,
      "morgan": 8294,
      "followin": 8295,
      "dice": 8296,
      "galore": 8297,
      "shoppin": 8298,
      "yearbook": 8299,
      "walks": 8300,
      "beautif": 8301,
      "strang": 8302,
      "juss": 8303,
      "resume": 8304,
      "latin": 8305,
      "obsession": 8306,
      "crisis": 8307,
      "zombies": 8308,
      "photographer": 8309,
      "2moz": 8310,
      "hve": 8311,
      "uno": 8312,
      "strep": 8313,
      "roses": 8314,
      "seas": 8315,
      "ishment": 8316,
      "homeless": 8317,
      "tyleno": 8318,
      "marsh": 8319,
      "trapped": 8320,
      "booty": 8321,
      "chai": 8322,
      "ballet": 8323,
      "curve": 8324,
      "sentence": 8325,
      "spoken": 8326,
      "pastor": 8327,
      "tesco": 8328,
      "spiders": 8329,
      "ewww": 8330,
      "abandoned": 8331,
      "mourning": 8332,
      "cinnamon": 8333,
      "ito": 8334,
      "ml": 8335,
      "isy": 8336,
      "amused": 8337,
      "outdoor": 8338,
      "laughter": 8339,
      "aby": 8340,
      "popping": 8341,
      "exe": 8342,
      "conveni": 8343,
      "migr": 8344,
      "sched": 8345,
      "ives": 8346,
      "tutor": 8347,
      "stepped": 8348,
      "penny": 8349,
      "magical": 8350,
      "genu": 8351,
      "century": 8352,
      "powerful": 8353,
      "dunkin": 8354,
      "storming": 8355,
      "connecting": 8356,
      "giggle": 8357,
      "slides": 8358,
      "router": 8359,
      "errors": 8360,
      "shuffle": 8361,
      "practicing": 8362,
      "referring": 8363,
      "innocent": 8364,
      "financial": 8365,
      "h8": 8366,
      "hats": 8367,
      "pwn": 8368,
      "rn": 8369,
      "justice": 8370,
      "neva": 8371,
      "pea": 8372,
      "tasted": 8373,
      "pher": 8374,
      "sorts": 8375,
      "gras": 8376,
      "ignor": 8377,
      "hottest": 8378,
      "plains": 8379,
      "cloth": 8380,
      "angeles": 8381,
      "learnt": 8382,
      "fourth": 8383,
      "sweating": 8384,
      "rubbing": 8385,
      "pattern": 8386,
      "flawless": 8387,
      "bn": 8388,
      "dn": 8389,
      "twe": 8390,
      "veg": 8391,
      "oww": 8392,
      "boiling": 8393,
      "sail": 8394,
      "needa": 8395,
      "fier": 8396,
      "supply": 8397,
      "kiddo": 8398,
      "tina": 8399,
      "greens": 8400,
      ":')": 8401,
      "bullet": 8402,
      "responding": 8403,
      "debating": 8404,
      "advertising": 8405,
      "poetry": 8406,
      "sponsor": 8407,
      "orientation": 8408,
      "2mrw": 8409,
      "tylenol": 8410,
      "!?!?": 8411,
      "cn": 8412,
      "cnn": 8413,
      "pil": 8414,
      "hab": 8415,
      "aya": 8416,
      "andrea": 8417,
      "sil": 8418,
      "rows": 8419,
      "gel": 8420,
      "cheating": 8421,
      "badass": 8422,
      "packet": 8423,
      "acy": 8424,
      "gathering": 8425,
      "ducks": 8426,
      "cullen": 8427,
      "favs": 8428,
      "grave": 8429,
      "arghh": 8430,
      "pairs": 8431,
      "returns": 8432,
      "correction": 8433,
      "psych": 8434,
      "switching": 8435,
      "rupted": 8436,
      "applications": 8437,
      "ghetti": 8438,
      "recognize": 8439,
      "burrito": 8440,
      "tacular": 8441,
      "determined": 8442,
      "alike": 8443,
      "avi": 8444,
      "jama": 8445,
      "kard": 8446,
      "thu": 8447,
      "wipe": 8448,
      "weet": 8449,
      "romance": 8450,
      "spreading": 8451,
      "fuzz": 8452,
      "suns": 8453,
      "storage": 8454,
      "buh": 8455,
      "mayb": 8456,
      "tones": 8457,
      "runny": 8458,
      "clips": 8459,
      "vacu": 8460,
      "teehee": 8461,
      "yummm": 8462,
      "natalie": 8463,
      "successfully": 8464,
      "tags": 8465,
      "butterfly": 8466,
      "pony": 8467,
      "patiently": 8468,
      "tradition": 8469,
      "tomatoes": 8470,
      "vitamin": 8471,
      "whisper": 8472,
      "vegetarian": 8473,
      "suicide": 8474,
      "fart": 8475,
      "jah": 8476,
      "lool": 8477,
      "ortho": 8478,
      "itt": 8479,
      "arly": 8480,
      "ario": 8481,
      "cody": 8482,
      "laz": 8483,
      "tale": 8484,
      "pless": 8485,
      "luggage": 8486,
      "diving": 8487,
      "foreign": 8488,
      "hurri": 8489,
      "fringe": 8490,
      "bbm": 8491,
      "tuna": 8492,
      "highschool": 8493,
      "werent": 8494,
      "gigg": 8495,
      "organic": 8496,
      "avoiding": 8497,
      "neglected": 8498,
      "symptoms": 8499,
      "ae": 8500,
      "iow": 8501,
      "nga": 8502,
      "opt": 8503,
      "pond": 8504,
      "rash": 8505,
      "soaking": 8506,
      "laho": 8507,
      "query": 8508,
      "urally": 8509,
      "diddy": 8510,
      "kingdom": 8511,
      "glory": 8512,
      "fiance": 8513,
      "listing": 8514,
      "dubai": 8515,
      "jects": 8516,
      "kindle": 8517,
      "freaky": 8518,
      "istan": 8519,
      "sticking": 8520,
      "imax": 8521,
      "stronger": 8522,
      "pigs": 8523,
      "plugin": 8524,
      "shorter": 8525,
      "volume": 8526,
      "02": 8527,
      "120": 8528,
      "clap": 8529,
      "evid": 8530,
      "kip": 8531,
      "ully": 8532,
      "wnt": 8533,
      "infected": 8534,
      "cobra": 8535,
      "pel": 8536,
      "wai": 8537,
      "comcast": 8538,
      "assess": 8539,
      "disagree": 8540,
      "skating": 8541,
      "hunger": 8542,
      "messenger": 8543,
      "denmark": 8544,
      "knitting": 8545,
      "jammin": 8546,
      "sharp": 8547,
      "designing": 8548,
      "youngest": 8549,
      "dodgers": 8550,
      "cartoons": 8551,
      "confident": 8552,
      "bend": 8553,
      "eld": 8554,
      "jade": 8555,
      "nys": 8556,
      "noises": 8557,
      "eday": 8558,
      "goals": 8559,
      "alle": 8560,
      "cocon": 8561,
      "teasing": 8562,
      "tastic": 8563,
      "exception": 8564,
      "twitterworld": 8565,
      "types": 8566,
      "asses": 8567,
      "pale": 8568,
      "leak": 8569,
      "hii": 8570,
      "fia": 8571,
      "lighter": 8572,
      "sweety": 8573,
      "julia": 8574,
      "danced": 8575,
      "highlights": 8576,
      "sexual": 8577,
      "ontd": 8578,
      "stickam": 8579,
      "russell": 8580,
      "microwave": 8581,
      "delish": 8582,
      "responded": 8583,
      "nascar": 8584,
      "integr": 8585,
      "chad": 8586,
      "cie": 8587,
      "cil": 8588,
      "dmb": 8589,
      "pam": 8590,
      "pjs": 8591,
      "sissy": 8592,
      "vig": 8593,
      "yaaaay": 8594,
      "incident": 8595,
      "independ": 8596,
      "toll": 8597,
      "begging": 8598,
      "tila": 8599,
      "wemble": 8600,
      "quil": 8601,
      "peak": 8602,
      "defe": 8603,
      "likey": 8604,
      "cave": 8605,
      "fuzzy": 8606,
      "harris": 8607,
      "traged": 8608,
      "syrup": 8609,
      "compat": 8610,
      "brill": 8611,
      "twist": 8612,
      "lmaoo": 8613,
      "perfectworld": 8614,
      "figures": 8615,
      "promising": 8616,
      "bananas": 8617,
      "hump": 8618,
      "printing": 8619,
      "90210": 8620,
      "engers": 8621,
      "treatment": 8622,
      "assuming": 8623,
      "recie": 8624,
      "communication": 8625,
      "horribly": 8626,
      "illegal": 8627,
      "malaysia": 8628,
      "exclusive": 8629,
      "ires": 8630,
      "karen": 8631,
      "onion": 8632,
      "rell": 8633,
      "atically": 8634,
      "cken": 8635,
      "whooo": 8636,
      "codes": 8637,
      "offers": 8638,
      "stoma": 8639,
      "playoffs": 8640,
      "heya": 8641,
      "sats": 8642,
      "collect": 8643,
      "inaperfectworld": 8644,
      "brownie": 8645,
      "spotted": 8646,
      "creek": 8647,
      "approved": 8648,
      "wagon": 8649,
      "vomit": 8650,
      "41": 8651,
      "drained": 8652,
      "gid": 8653,
      "imac": 8654,
      "stare": 8655,
      "begun": 8656,
      "maps": 8657,
      "imm": 8658,
      "agenda": 8659,
      "cait": 8660,
      "stein": 8661,
      "clay": 8662,
      "10k": 8663,
      "rooting": 8664,
      "hunter": 8665,
      "colds": 8666,
      "planes": 8667,
      "picks": 8668,
      "viewing": 8669,
      "salmon": 8670,
      "celebrit": 8671,
      "travelling": 8672,
      "loooove": 8673,
      "andyhurleyday": 8674,
      "wembley": 8675,
      "jing": 8676,
      "methinks": 8677,
      "hass": 8678,
      "cht": 8679,
      "homies": 8680,
      "logging": 8681,
      "tires": 8682,
      "bali": 8683,
      "nao": 8684,
      "ishing": 8685,
      "tasting": 8686,
      "sleeep": 8687,
      "bul": 8688,
      "peru": 8689,
      "jean": 8690,
      "cheek": 8691,
      "spamming": 8692,
      "spaghetti": 8693,
      "idiots": 8694,
      "eliza": 8695,
      "loooong": 8696,
      "pacific": 8697,
      "tiffany": 8698,
      "pandora": 8699,
      "batteries": 8700,
      "treadmill": 8701,
      "woh": 8702,
      "yon": 8703,
      "thts": 8704,
      "becomes": 8705,
      "allison": 8706,
      "races": 8707,
      "dew": 8708,
      "defo": 8709,
      "seek": 8710,
      "greatly": 8711,
      "sidekick": 8712,
      "checkin": 8713,
      "goog": 8714,
      "wallpaper": 8715,
      "hayley": 8716,
      "approve": 8717,
      "organized": 8718,
      "frankie": 8719,
      "ubertwitter": 8720,
      "relieved": 8721,
      "safety": 8722,
      "kend": 8723,
      "kie": 8724,
      "lates": 8725,
      "mj": 8726,
      "rally": 8727,
      "tf": 8728,
      "antoni": 8729,
      "chow": 8730,
      "adays": 8731,
      "upp": 8732,
      "nike": 8733,
      "washer": 8734,
      "subs": 8735,
      "fel": 8736,
      "acts": 8737,
      "keeper": 8738,
      "kiddos": 8739,
      "fris": 8740,
      "border": 8741,
      "aaaaay": 8742,
      "monthly": 8743,
      "slower": 8744,
      "univers": 8745,
      "sims3": 8746,
      "casino": 8747,
      "pinky": 8748,
      "sarcas": 8749,
      "developer": 8750,
      "wheels": 8751,
      "bounce": 8752,
      "duper": 8753,
      "fck": 8754,
      "jp": 8755,
      "pse": 8756,
      "rust": 8757,
      "rry": 8758,
      "tj": 8759,
      "von": 8760,
      "agen": 8761,
      "iland": 8762,
      "twitts": 8763,
      "breast": 8764,
      "sitive": 8765,
      "olds": 8766,
      "treats": 8767,
      "uggh": 8768,
      "cameras": 8769,
      "speaker": 8770,
      "billion": 8771,
      "emotions": 8772,
      "hidden": 8773,
      "zoe": 8774,
      "benefit": 8775,
      "gag": 8776,
      "gals": 8777,
      "wheat": 8778,
      "itter": 8779,
      "mets": 8780,
      "sipping": 8781,
      "nds": 8782,
      "prevent": 8783,
      "proto": 8784,
      "byee": 8785,
      "bleach": 8786,
      "glee": 8787,
      "earrings": 8788,
      "minis": 8789,
      "specially": 8790,
      "restless": 8791,
      "northern": 8792,
      "jungle": 8793,
      "swallow": 8794,
      "alien": 8795,
      "loosing": 8796,
      "dollhouse": 8797,
      "refreshed": 8798,
      "buffet": 8799,
      "rejected": 8800,
      "genuine": 8801,
      "hong": 8802,
      "sb": 8803,
      "yeee": 8804,
      "mez": 8805,
      "mowing": 8806,
      "debut": 8807,
      "nacho": 8808,
      "waaaay": 8809,
      "zzie": 8810,
      "travis": 8811,
      "birthdays": 8812,
      "freezer": 8813,
      "highway": 8814,
      "calcul": 8815,
      "accounting": 8816,
      "bots": 8817,
      "entered": 8818,
      "naturally": 8819,
      "fights": 8820,
      "arrives": 8821,
      "24th": 8822,
      "antibiotics": 8823,
      "33333333": 8824,
      "henry": 8825,
      "membership": 8826,
      "designed": 8827,
      "clinic": 8828,
      "irritated": 8829,
      "waaay": 8830,
      "knife": 8831,
      "egypt": 8832,
      "israel": 8833,
      "celebrities": 8834,
      "0o": 8835,
      "dk": 8836,
      "elli": 8837,
      "ido": 8838,
      "zin": 8839,
      "leah": 8840,
      "liest": 8841,
      "moan": 8842,
      "gotcha": 8843,
      "monsters": 8844,
      "carrie": 8845,
      "tricks": 8846,
      "davis": 8847,
      "musso": 8848,
      "bball": 8849,
      "julian": 8850,
      "uniform": 8851,
      "humans": 8852,
      "johnson": 8853,
      "zzzzz": 8854,
      "(((": 8855,
      "cuddles": 8856,
      "chapters": 8857,
      "travels": 8858,
      "sympathy": 8859,
      "translation": 8860,
      "confidence": 8861,
      "saddened": 8862,
      "trampo": 8863,
      "shannon": 8864,
      "antonio": 8865,
      "69": 8866,
      "boooooo": 8867,
      "pamp": 8868,
      "replay": 8869,
      "meeeee": 8870,
      "lend": 8871,
      "leaf": 8872,
      "chronic": 8873,
      "admi": 8874,
      "wiped": 8875,
      "aloud": 8876,
      "nowadays": 8877,
      "feli": 8878,
      "bles": 8879,
      "fff": 8880,
      "downside": 8881,
      "ashton": 8882,
      "chipot": 8883,
      "trey": 8884,
      "treated": 8885,
      "dragging": 8886,
      "cellphone": 8887,
      "commented": 8888,
      "merch": 8889,
      "fatty": 8890,
      "melting": 8891,
      "clearing": 8892,
      "kudos": 8893,
      "pounding": 8894,
      "courtney": 8895,
      "iloveyou": 8896,
      "argument": 8897,
      "categor": 8898,
      "52": 8899,
      "?'": 8900,
      "mwa": 8901,
      "mcr": 8902,
      "nada": 8903,
      "rh": 8904,
      "yur": 8905,
      "oni": 8906,
      "recovered": 8907,
      "behave": 8908,
      "heater": 8909,
      "abor": 8910,
      "illness": 8911,
      "delong": 8912,
      "depri": 8913,
      "hahahahah": 8914,
      "ookie": 8915,
      "needles": 8916,
      "tuck": 8917,
      "girlies": 8918,
      "parag": 8919,
      "roomie": 8920,
      "hehehehe": 8921,
      "garbage": 8922,
      "roads": 8923,
      "millions": 8924,
      "pooped": 8925,
      "bald": 8926,
      "attached": 8927,
      "millionaire": 8928,
      "jumpnow": 8929,
      "rasp": 8930,
      "region": 8931,
      "tomorro": 8932,
      "kardashi": 8933,
      "chipotle": 8934,
      "nvm": 8935,
      "tshirt": 8936,
      "ying": 8937,
      "stir": 8938,
      "memph": 8939,
      "dock": 8940,
      "faint": 8941,
      "guar": 8942,
      "overtime": 8943,
      "yayyyy": 8944,
      "laptops": 8945,
      "gina": 8946,
      "2007": 8947,
      "kickin": 8948,
      "shipped": 8949,
      "terrified": 8950,
      "champions": 8951,
      "effective": 8952,
      "intellig": 8953,
      "brutal": 8954,
      "iya": 8955,
      "pint": 8956,
      "zomg": 8957,
      "lease": 8958,
      "editor": 8959,
      "soak": 8960,
      "heating": 8961,
      "cans": 8962,
      "lautner": 8963,
      "plement": 8964,
      "twitterfox": 8965,
      "mild": 8966,
      "provide": 8967,
      "ruins": 8968,
      "hubs": 8969,
      "shaw": 8970,
      "runk": 8971,
      "runner": 8972,
      "casey": 8973,
      "sumthin": 8974,
      "brains": 8975,
      "blasting": 8976,
      "americans": 8977,
      "zack": 8978,
      "physically": 8979,
      "buster": 8980,
      "arrang": 8981,
      "groceries": 8982,
      "thorough": 8983,
      "colours": 8984,
      "carrying": 8985,
      "regarding": 8986,
      "melted": 8987,
      "brittany": 8988,
      "exploring": 8989,
      "belgium": 8990,
      "memphis": 8991,
      "94": 8992,
      "fow": 8993,
      "infamous": 8994,
      "lib": 8995,
      "shh": 8996,
      "feeds": 8997,
      "waaa": 8998,
      "mula": 8999,
      "buffy": 9000,
      "assass": 9001,
      "throughout": 9002,
      "hangout": 9003,
      "heartbreaking": 9004,
      "pays": 9005,
      "obli": 9006,
      "arriving": 9007,
      "struck": 9008,
      "krispy": 9009,
      "skipped": 9010,
      "printed": 9011,
      "spectacular": 9012,
      "unbelievable": 9013,
      "filipino": 9014,
      "aay": 9015,
      "ivy": 9016,
      "kb": 9017,
      "zip": 9018,
      "haveyou": 9019,
      "terror": 9020,
      "canal": 9021,
      "shld": 9022,
      "sip": 9023,
      "twitpics": 9024,
      "happiest": 9025,
      "hipp": 9026,
      "visual": 9027,
      "iously": 9028,
      "grape": 9029,
      "gene": 9030,
      "absolut": 9031,
      "titles": 9032,
      "crackers": 9033,
      "plugged": 9034,
      "fascin": 9035,
      "jewelry": 9036,
      "medium": 9037,
      "tragedy": 9038,
      "bbl": 9039,
      "mash": 9040,
      "oma": 9041,
      "rou": 9042,
      "witch": 9043,
      "chir": 9044,
      "nicho": 9045,
      "masters": 9046,
      "thanking": 9047,
      "boi": 9048,
      "umn": 9049,
      "whom": 9050,
      "tries": 9051,
      "wooh": 9052,
      "commute": 9053,
      "resour": 9054,
      "casual": 9055,
      "ggggg": 9056,
      "sweater": 9057,
      "suitcase": 9058,
      "26th": 9059,
      "glasto": 9060,
      "pierced": 9061,
      "mariah": 9062,
      "engagement": 9063,
      "sarcasm": 9064,
      "haveyouever": 9065,
      "01": 9066,
      "78": 9067,
      "900": 9068,
      "aight": 9069,
      "iin": 9070,
      "mere": 9071,
      "zie": 9072,
      "reee": 9073,
      "worm": 9074,
      "labor": 9075,
      "finn": 9076,
      "sized": 9077,
      "heres": 9078,
      "mentally": 9079,
      "madison": 9080,
      "buses": 9081,
      "iight": 9082,
      "ures": 9083,
      "brief": 9084,
      "valu": 9085,
      "benef": 9086,
      "14th": 9087,
      "hollyoaks": 9088,
      "oregon": 9089,
      "unemployed": 9090,
      "honored": 9091,
      "coconut": 9092,
      "71": 9093,
      "92": 9094,
      "cee": 9095,
      "fn": 9096,
      "fid": 9097,
      "hush": 9098,
      "kal": 9099,
      "thigh": 9100,
      "enthus": 9101,
      "fob": 9102,
      "compar": 9103,
      "migrain": 9104,
      "angle": 9105,
      "interface": 9106,
      "sounding": 9107,
      "ddle": 9108,
      "guessed": 9109,
      "paypal": 9110,
      "sooon": 9111,
      "darlin": 9112,
      "panel": 9113,
      "cardio": 9114,
      "jamin": 9115,
      "sammy": 9116,
      "intention": 9117,
      "programs": 9118,
      "systems": 9119,
      "presence": 9120,
      "ghetto": 9121,
      "disturbing": 9122,
      "2b": 9123,
      "gno": 9124,
      "inje": 9125,
      "noah": 9126,
      "ricky": 9127,
      "ramen": 9128,
      "abi": 9129,
      "seein": 9130,
      "whatcha": 9131,
      "nda": 9132,
      "homes": 9133,
      "concl": 9134,
      "slut": 9135,
      "typed": 9136,
      "tonights": 9137,
      "breakdown": 9138,
      "giants": 9139,
      "tested": 9140,
      "dancer": 9141,
      "linked": 9142,
      "watermelon": 9143,
      "ctivity": 9144,
      "strand": 9145,
      "thailand": 9146,
      "sandals": 9147,
      "datab": 9148,
      "digg": 9149,
      "occur": 9150,
      "masterchef": 9151,
      "29th": 9152,
      "scottish": 9153,
      "utterly": 9154,
      "gooooood": 9155,
      "expired": 9156,
      "jt": 9157,
      "lamp": 9158,
      "smar": 9159,
      "mechan": 9160,
      "isle": 9161,
      "sos": 9162,
      "tia": 9163,
      "yeaa": 9164,
      "foll": 9165,
      "callin": 9166,
      "estate": 9167,
      "lotsa": 9168,
      "boost": 9169,
      "voices": 9170,
      "chaos": 9171,
      "whist": 9172,
      "hmmmmm": 9173,
      "hittin": 9174,
      "lson": 9175,
      "dresser": 9176,
      "eventful": 9177,
      "logical": 9178,
      "suggested": 9179,
      "capital": 9180,
      "matches": 9181,
      "laters": 9182,
      "entertained": 9183,
      "alyssa": 9184,
      "phase": 9185,
      "flooded": 9186,
      "arette": 9187,
      "milkshake": 9188,
      "22nd": 9189,
      "56": 9190,
      "fx": 9191,
      "hust": 9192,
      "sally": 9193,
      "yeeee": 9194,
      "zation": 9195,
      "insist": 9196,
      "resort": 9197,
      "arc": 9198,
      "chica": 9199,
      "lick": 9200,
      "rox": 9201,
      "unknown": 9202,
      "dong": 9203,
      "finland": 9204,
      "offended": 9205,
      "acade": 9206,
      "madrid": 9207,
      "cities": 9208,
      "shamp": 9209,
      "102": 9210,
      "kinder": 9211,
      "countries": 9212,
      "sucker": 9213,
      "machines": 9214,
      "sque": 9215,
      "milit": 9216,
      "surprises": 9217,
      "hahahahahaha": 9218,
      "trackle": 9219,
      "tables": 9220,
      "havn": 9221,
      "static": 9222,
      "tattoos": 9223,
      "ghostbusters": 9224,
      "lifting": 9225,
      "eastern": 9226,
      "newspaper": 9227,
      "fen": 9228,
      "kah": 9229,
      "kreme": 9230,
      "pw": 9231,
      "yung": 9232,
      "infe": 9233,
      "retweeting": 9234,
      "oom": 9235,
      "aring": 9236,
      "associ": 9237,
      "homo": 9238,
      "espresso": 9239,
      "cano": 9240,
      "rack": 9241,
      "timeline": 9242,
      "misss": 9243,
      "exited": 9244,
      "harm": 9245,
      "applying": 9246,
      "minne": 9247,
      "suprise": 9248,
      "everton": 9249,
      "dak": 9250,
      "wardrobe": 9251,
      "pia": 9252,
      "dreamt": 9253,
      "stands": 9254,
      "eeek": 9255,
      "clubs": 9256,
      "freaks": 9257,
      "fluffy": 9258,
      "downloads": 9259,
      "banks": 9260,
      "browsing": 9261,
      "blueberry": 9262,
      "pleaseee": 9263,
      "eleven": 9264,
      "heey": 9265,
      "uuuuuu": 9266,
      "cider": 9267,
      "balti": 9268,
      "continued": 9269,
      "pirates": 9270,
      "optimist": 9271,
      "womp": 9272,
      "corporate": 9273,
      "delongeday": 9274,
      "enthusi": 9275,
      "!?!?!": 9276,
      ")?": 9277,
      "nina": 9278,
      "sche": 9279,
      "erto": 9280,
      "advan": 9281,
      "webb": 9282,
      "verly": 9283,
      "urt": 9284,
      "indu": 9285,
      "bugging": 9286,
      "nerve": 9287,
      "intended": 9288,
      "torrent": 9289,
      "cyber": 9290,
      "banner": 9291,
      "fitting": 9292,
      "xxxxxx": 9293,
      "hydr": 9294,
      "diapers": 9295,
      "appearance": 9296,
      "january": 9297,
      "amazin": 9298,
      "27th": 9299,
      "bubbles": 9300,
      "danielle": 9301,
      "oxford": 9302,
      "rangers": 9303,
      "temporary": 9304,
      "glue": 9305,
      "tutorial": 9306,
      "hurricane": 9307,
      "!).": 9308,
      "2mor": 9309,
      "3000": 9310,
      "bck": 9311,
      "fond": 9312,
      "heeee": 9313,
      "kam": 9314,
      "pcd": 9315,
      "yaaa": 9316,
      "erie": 9317,
      "recru": 9318,
      "label": 9319,
      "bailey": 9320,
      "shred": 9321,
      "frickin": 9322,
      "affair": 9323,
      "goddamn": 9324,
      "voy": 9325,
      "classmates": 9326,
      "puff": 9327,
      "flippin": 9328,
      "invites": 9329,
      "eeeeeeeeee": 9330,
      "belfast": 9331,
      "splash": 9332,
      "cocktail": 9333,
      "espn": 9334,
      "bastards": 9335,
      "slumdog": 9336,
      "jennifer": 9337,
      "guarant": 9338,
      "bm": 9339,
      "fang": 9340,
      "ika": 9341,
      "kra": 9342,
      "sample": 9343,
      "troo": 9344,
      "tcot": 9345,
      "infin": 9346,
      "haun": 9347,
      "noe": 9348,
      "noisy": 9349,
      "leopard": 9350,
      "argue": 9351,
      "sod": 9352,
      "asth": 9353,
      "cozy": 9354,
      "moto": 9355,
      "shines": 9356,
      "exit": 9357,
      "hopeless": 9358,
      "chell": 9359,
      "checks": 9360,
      "monkeys": 9361,
      "stayin": 9362,
      "treasure": 9363,
      "wears": 9364,
      "kissed": 9365,
      "prints": 9366,
      "whack": 9367,
      "protect": 9368,
      "refuses": 9369,
      "remaining": 9370,
      "focused": 9371,
      "simpsons": 9372,
      "shampoo": 9373,
      "fting": 9374,
      "fts": 9375,
      "imy": 9376,
      "oscar": 9377,
      "yd": 9378,
      "tow": 9379,
      "stable": 9380,
      "nos": 9381,
      "alaska": 9382,
      "rico": 9383,
      "rail": 9384,
      "knoww": 9385,
      "commen": 9386,
      "oooooh": 9387,
      "budd": 9388,
      "tuition": 9389,
      "partay": 9390,
      "boro": 9391,
      "auction": 9392,
      "synd": 9393,
      "brie": 9394,
      "casting": 9395,
      "flav": 9396,
      "bulls": 9397,
      "statist": 9398,
      "fields": 9399,
      "impression": 9400,
      "priceless": 9401,
      "delhi": 9402,
      "dumped": 9403,
      "tnx": 9404,
      "sketch": 9405,
      "surrounded": 9406,
      "damp": 9407,
      "dsl": 9408,
      "havi": 9409,
      "nova": 9410,
      "edited": 9411,
      "lope": 9412,
      "lotion": 9413,
      "ceiling": 9414,
      "lappy": 9415,
      "macy": 9416,
      "milo": 9417,
      "chew": 9418,
      "counc": 9419,
      "hardware": 9420,
      "skins": 9421,
      "passengers": 9422,
      "rockstar": 9423,
      "charles": 9424,
      "panera": 9425,
      "fella": 9426,
      "gordon": 9427,
      "jamas": 9428,
      "smelly": 9429,
      "geeks": 9430,
      "dete": 9431,
      "grove": 9432,
      "tara": 9433,
      "organizing": 9434,
      "dorm": 9435,
      "debate": 9436,
      "gadget": 9437,
      "purchased": 9438,
      "invented": 9439,
      "method": 9440,
      "seminar": 9441,
      "universal": 9442,
      "hed": 9443,
      "mone": 9444,
      "inse": 9445,
      "intri": 9446,
      "invisible": 9447,
      "hamilton": 9448,
      "veggies": 9449,
      "arab": 9450,
      "adap": 9451,
      "movin": 9452,
      "feast": 9453,
      "newly": 9454,
      "spree": 9455,
      "lette": 9456,
      "pretending": 9457,
      "kidney": 9458,
      "payday": 9459,
      "cookout": 9460,
      "grandfather": 9461,
      "ranch": 9462,
      "grammar": 9463,
      "accidently": 9464,
      "peek": 9465,
      "personality": 9466,
      "individ": 9467,
      "whiskey": 9468,
[...]
